<pad>	0
<s>	0
</s>	0
<unk>	0
▁,	-3.28383
▁.	-3.50044
▁	-3.6189
s	-3.88079
▁the	-4.17684
ng	-4.39021
t	-4.45846
i	-4.5175
y	-4.59577
▁to	-4.73872
▁a	-4.82469
▁và	-4.84399
a	-4.85469
▁of	-4.89653
▁là	-4.94156
▁t	-4.96367
and	-4.96437
▁'	-4.97373
▁th	-5.01931
n	-5.0716
m	-5.0777
▁tôi	-5.08051
▁có	-5.09815
▁một	-5.15611
▁I	-5.20387
▁in	-5.26089
ing	-5.31119
▁-	-5.35421
▁"	-5.36669
▁chúng	-5.40853
▁những	-5.42622
▁củ	-5.43778
▁is	-5.4611
▁we	-5.48335
▁ta	-5.51146
ed	-5.5168
▁you	-5.52017
▁không	-5.53514
u	-5.5502
▁it	-5.57786
o	-5.60689
ly	-5.67992
▁tha	-5.68148
▁người	-5.68415
▁bạn	-5.69907
▁đó	-5.70491
▁n	-5.7161
▁c	-5.73121
▁s	-5.75719
d	-5.79646
▁?	-5.81067
▁thể	-5.81286
▁trong	-5.824
▁được	-5.87314
▁này	-5.87517
c	-5.87855
▁như	-5.8915
ở	-5.89947
▁đã	-5.96293
▁các	-5.9705
▁be	-5.97265
ất	-5.97656
▁do	-5.98184
▁cho	-5.98492
▁ra	-5.98771
▁And	-6.0315
▁sự	-6.04409
ẽ	-6.05324
▁vớ	-6.08445
▁b	-6.08566
▁làm	-6.12164
▁mà	-6.13723
▁are	-6.14478
▁for	-6.18946
h	-6.19946
▁điều	-6.20676
▁để	-6.21414
▁on	-6.22501
▁về	-6.22923
▁nó	-6.23721
▁was	-6.24699
▁đ	-6.2582
(	-6.26556
▁)	-6.2663
▁with	-6.26672
hat	-6.26834
▁m	-6.28041
have	-6.28346
▁Và	-6.28885
▁r	-6.29376
▁cả	-6.32048
at	-6.32065
▁:	-6.32513
▁l	-6.32716
▁khi	-6.34622
e	-6.36379
▁họ	-6.37825
▁thế	-6.38047
re	-6.38322
▁tr	-6.40729
-	-6.44276
'	-6.44516
▁what	-6.46304
▁nói	-6.47528
▁từ	-6.49834
▁C	-6.5059
▁phải	-6.53834
▁The	-6.54117
▁rằng	-6.54533
▁đến	-6.55837
▁hơn	-6.58522
▁việc	-6.58689
▁So	-6.58881
▁can	-6.59092
▁an	-6.59223
▁v	-6.59374
▁gì	-6.60749
▁T	-6.62058
▁Tô	-6.63097
▁not	-6.63878
▁lại	-6.6444
▁h	-6.65153
▁d	-6.6538
▁đa	-6.65544
ould	-6.65735
▁all	-6.67
▁cách	-6.68057
▁so	-6.69699
es	-6.7005
nh	-6.70128
is	-6.70807
▁nhiều	-6.71276
▁khác	-6.72667
▁ch	-6.72895
ch	-6.73054
▁công	-6.73147
▁k	-6.73664
▁thấy	-6.73899
▁đầu	-6.76105
▁people	-6.7823
ut	-6.79067
▁chỉ	-6.79172
▁vì	-6.80142
▁thực	-6.80818
▁thứ	-6.8178
▁my	-6.8255
▁học	-6.83085
▁like	-6.83825
▁biết	-6.84409
▁con	-6.85893
▁there	-6.86026
▁one	-6.86539
▁abo	-6.86636
▁đây	-6.8819
▁nghĩ	-6.88333
▁đề	-6.89188
▁our	-6.89431
▁nào	-6.89677
▁Chú	-6.89879
▁trên	-6.90275
▁or	-6.90377
▁but	-6.91392
▁at	-6.91517
▁as	-6.91618
▁It	-6.91893
▁thi	-6.91913
▁năm	-6.92875
▁cũ	-6.93005
p	-6.93946
▁w	-6.96042
▁thành	-6.96245
▁fro	-6.97597
if	-6.97829
▁bị	-6.98287
▁We	-6.98734
▁số	-7.00911
ve	-7.0113
▁quan	-7.01741
▁think	-7.01924
▁Đ	-7.03049
▁know	-7.03559
âu	-7.03665
▁just	-7.03736
▁V	-7.04283
his	-7.05232
▁cái	-7.05472
▁ng	-7.06037
▁Như	-7.06494
▁nhà	-7.07705
ời	-7.08579
cause	-7.08889
▁your	-7.09243
▁me	-7.09525
▁go	-7.09839
▁mình	-7.09937
▁more	-7.09968
▁qua	-7.11831
▁đi	-7.11858
ức	-7.1312
ông	-7.1355
▁year	-7.1386
▁động	-7.14387
▁nên	-7.14408
g	-7.14942
▁when	-7.15219
▁Bu	-7.15847
▁us	-7.1613
▁some	-7.16435
▁B	-7.17408
▁by	-7.17771
▁who	-7.18098
▁tạo	-7.18565
▁muốn	-7.18982
▁giới	-7.19025
▁nhất	-7.19074
▁nhận	-7.19338
▁whi	-7.19411
▁nế	-7.1965
▁g	-7.20246
▁thing	-7.21065
▁see	-7.22063
▁vậy	-7.22163
▁out	-7.2301
▁phá	-7.2333
▁them	-7.24097
▁kế	-7.24161
▁up	-7.24314
▁hiện	-7.24429
▁N	-7.25455
▁get	-7.26546
▁hay	-7.26854
▁their	-7.26987
▁giờ	-7.2795
▁how	-7.28132
▁thì	-7.28589
▁tại	-7.30495
▁tin	-7.3076
▁cuộc	-7.30867
.	-7.31441
ích	-7.31447
▁he	-7.32285
very	-7.33568
ies	-7.33924
▁ấy	-7.342
▁ý	-7.34881
▁lớn	-7.3519
▁bở	-7.37707
▁look	-7.38398
had	-7.38459
▁thật	-7.38694
ây	-7.39115
▁tự	-7.398
▁nhân	-7.40042
ỗ	-7.40112
▁You	-7.40668
▁gia	-7.40673
▁hình	-7.41458
▁will	-7.41813
▁dụng	-7.43037
▁time	-7.43356
▁actual	-7.43703
▁mọ	-7.43771
▁cùng	-7.43823
▁want	-7.4398
▁theo	-7.43989
▁world	-7.44097
ương	-7.44421
▁cơ	-7.44437
▁chín	-7.44577
▁tới	-7.45189
▁còn	-7.45242
▁gi	-7.45405
out	-7.45533
ình	-7.46092
▁bắ	-7.46643
▁bản	-7.46762
▁ba	-7.46963
▁vấn	-7.47309
▁real	-7.48225
▁has	-7.49127
▁way	-7.49677
▁sử	-7.49753
▁kh	-7.49857
▁other	-7.50219
▁nước	-7.50236
▁sống	-7.50634
▁chiế	-7.51054
▁tế	-7.52175
▁toàn	-7.52533
▁work	-7.52633
▁tì	-7.52703
▁trước	-7.52933
▁every	-7.53827
▁hệ	-7.53902
▁giá	-7.54614
▁dự	-7.55288
▁bằng	-7.55487
▁sau	-7.55514
ally	-7.55696
▁ngày	-7.55892
▁Th	-7.55991
▁chuyện	-7.56466
▁đổi	-7.56885
ần	-7.56892
▁nă	-7.56971
iết	-7.57091
hìn	-7.57137
▁bộ	-7.57483
▁lên	-7.58327
▁Now	-7.58686
▁here	-7.58849
er	-7.58976
▁máy	-7.59202
▁định	-7.59352
▁mới	-7.59579
▁where	-7.59714
were	-7.6012
▁hàng	-7.60642
▁sao	-7.609
▁dù	-7.6162
▁hành	-7.62333
▁need	-7.62414
▁phần	-7.62912
these	-7.63151
▁A	-7.63411
▁tưởng	-7.63687
▁did	-7.63689
▁trình	-7.64002
ối	-7.64027
▁S	-7.64428
▁into	-7.64507
r	-7.6479
▁độ	-7.65131
▁đồng	-7.6516
▁anh	-7.65297
▁nhau	-7.65446
▁tính	-7.65692
▁say	-7.65869
▁nhiên	-7.66049
ay	-7.66288
se	-7.66328
▁tốt	-7.66521
▁1	-7.66606
▁cô	-7.66924
▁cầ	-7.67107
▁trường	-7.67355
▁hỏi	-7.67719
ter	-7.67986
ity	-7.68592
▁L	-7.68959
iều	-7.70222
▁than	-7.7029
▁liệu	-7.70291
▁right	-7.70682
▁lý	-7.7077
▁Nó	-7.71039
en	-7.7112
▁any	-7.71877
▁Bạ	-7.72302
▁ông	-7.72388
ực	-7.73035
▁now	-7.73231
▁gian	-7.73267
▁giải	-7.73409
▁hợp	-7.73872
▁trọng	-7.7394
▁no	-7.74313
▁cứu	-7.74476
▁ab	-7.74624
▁Đó	-7.74766
▁quá	-7.75085
▁tiếp	-7.75169
ó	-7.75219
▁hai	-7.7667
▁hoạ	-7.76777
oặ	-7.78064
▁x	-7.78125
on	-7.80051
▁make	-7.80144
le	-7.80582
ữ	-7.80978
▁xu	-7.81158
▁trẻ	-7.8132
▁That	-7.81401
▁thường	-7.81899
▁chí	-7.82031
▁vị	-7.82453
something	-7.83392
▁kinh	-7.83669
▁start	-7.84355
▁Laugh	-7.84596
▁first	-7.84696
ên	-7.84896
▁take	-7.84958
ì	-7.85255
ắc	-7.85393
▁In	-7.85938
▁quả	-7.8602
▁goi	-7.86221
▁call	-7.86612
▁;	-7.86882
▁thống	-7.87578
▁rồi	-7.87579
▁vật	-7.87811
▁điểm	-7.87977
▁ảnh	-7.88058
▁hoá	-7.88143
▁hội	-7.88239
▁even	-7.88767
▁M	-7.88974
▁nữa	-7.89325
▁Họ	-7.89615
al	-7.90097
▁mặt	-7.90452
xem	-7.90512
▁man	-7.90984
▁bệnh	-7.91155
▁đố	-7.91779
▁What	-7.92304
▁nay	-7.92307
▁lực	-7.9262
▁over	-7.94135
▁gọi	-7.95129
▁lần	-7.95175
▁tiên	-7.95285
▁đá	-7.95292
▁giữ	-7.95613
▁trị	-7.95632
▁H	-7.95682
▁loại	-7.95871
iệu	-7.95944
▁Vậ	-7.96192
ể	-7.96364
▁she	-7.96685
▁most	-7.96787
one	-7.96811
▁nơ	-7.97334
▁day	-7.97497
▁Đâ	-7.97538
able	-7.97562
▁ph	-7.97651
hông	-7.97706
▁wh	-7.9836
▁phụ	-7.98502
▁nữ	-7.98692
▁Mộ	-7.98753
▁got	-7.98793
▁hiểu	-7.99108
▁al	-7.99344
▁tay	-8.0025
▁nghĩa	-8.00432
ới	-8.00641
▁talk	-8.00675
▁Nế	-8.00919
úp	-8.01101
▁nghệ	-8.01169
round	-8.01596
lso	-8.01925
in	-8.02091
▁sai	-8.02244
▁khá	-8.02428
ce	-8.02825
▁back	-8.02892
▁new	-8.03002
▁mean	-8.03471
▁kind	-8.03511
ười	-8.03582
▁liên	-8.03588
two	-8.03662
▁ai	-8.04142
▁hoàn	-8.0436
▁lượng	-8.04464
▁He	-8.04545
thing	-8.0464
▁nh	-8.04841
▁come	-8.04883
▁use	-8.05027
▁cười	-8.05105
▁đứ	-8.05212
▁xe	-8.05239
ôi	-8.05261
▁trả	-8.05454
▁lot	-8.0549
▁cố	-8.05871
▁khí	-8.0656
▁through	-8.06609
▁xả	-8.0685
▁life	-8.06922
▁hã	-8.07162
▁Mỹ	-8.0767
▁different	-8.08031
day	-8.08193
▁20	-8.08304
▁chứ	-8.08618
▁nghiên	-8.08735
▁qu	-8.08814
▁nghe	-8.08847
▁tác	-8.09129
▁10	-8.09301
▁bả	-8.09818
▁her	-8.10091
▁tổ	-8.10373
▁nghiệm	-8.10681
▁chú	-8.10752
ánh	-8.11029
▁quyền	-8.11415
inh	-8.1167
▁triển	-8.11749
▁tâm	-8.1199
▁Thi	-8.12556
▁điện	-8.13086
▁dân	-8.13093
▁chơi	-8.13118
▁sáng	-8.13622
▁phố	-8.13701
ấy	-8.13737
▁tell	-8.13737
▁vẫ	-8.13911
▁biệt	-8.14138
▁nhỏ	-8.1437
▁phân	-8.1501
ỳ	-8.15099
▁his	-8.15174
ẻ	-8.15492
▁giố	-8.15705
âm	-8.15801
▁lúc	-8.16615
ài	-8.17091
▁tiền	-8.17106
▁idea	-8.17225
▁đại	-8.17255
▁yêu	-8.17429
hose	-8.17776
▁K	-8.18081
▁being	-8.18462
▁good	-8.18697
▁đư	-8.19068
▁su	-8.1915
▁não	-8.19665
▁R	-8.19812
▁Khi	-8.19958
▁2	-8.20152
uyết	-8.20243
▁If	-8.20291
ll	-8.20741
▁cầu	-8.20947
▁problem	-8.21226
▁quyết	-8.21305
▁change	-8.21396
▁re	-8.21659
▁bé	-8.22199
▁đúng	-8.23098
▁may	-8.23236
▁minh	-8.23371
▁give	-8.23634
▁same	-8.24318
ồi	-8.24329
▁dạ	-8.24488
▁3	-8.245
▁phòng	-8.24512
▁happen	-8.24831
▁tư	-8.24958
▁chuyển	-8.25175
▁diễ	-8.25197
▁khó	-8.2522
ào	-8.25237
▁khả	-8.25522
ử	-8.25717
ơi	-8.2574
▁đặt	-8.26021
▁sách	-8.26189
▁chưa	-8.26205
▁mô	-8.26407
uyên	-8.26414
ính	-8.26421
▁There	-8.26476
▁ca	-8.26978
▁fact	-8.27369
▁chủ	-8.27714
ether	-8.27772
▁chất	-8.27802
▁tập	-8.27866
▁tuyệt	-8.2831
▁đơn	-8.28327
▁cao	-8.28349
▁part	-8.28523
▁tượng	-8.28693
▁tiến	-8.28699
▁đường	-8.2873
▁bố	-8.29111
ứng	-8.29706
▁bà	-8.29711
th	-8.29747
▁thiế	-8.30228
▁thương	-8.30278
▁percent	-8.30314
▁might	-8.30344
▁truyền	-8.30355
ễ	-8.30582
▁down	-8.30962
▁biến	-8.3098
ục	-8.31079
▁put	-8.3126
ose	-8.31311
▁sản	-8.31332
▁mu	-8.31333
▁vụ	-8.31522
▁bee	-8.3167
▁Well	-8.31842
▁dụ	-8.31843
▁mạng	-8.3226
ầu	-8.32415
▁thị	-8.32437
▁show	-8.32461
▁Internet	-8.32463
▁tuổi	-8.32541
▁great	-8.32638
ân	-8.32697
▁thu	-8.3297
▁khoa	-8.33243
▁giáo	-8.33648
▁...	-8.3393
self	-8.34159
▁ask	-8.34161
▁quốc	-8.34293
nd	-8.34748
hững	-8.34753
▁cứ	-8.35135
▁mẹ	-8.35362
▁dẫn	-8.35481
ang	-8.35538
▁tă	-8.35575
▁human	-8.35584
▁trò	-8.35682
▁question	-8.35796
▁thuật	-8.35923
▁thân	-8.35951
▁chứng	-8.36024
▁learn	-8.36307
▁child	-8.37213
ước	-8.37264
▁phí	-8.3744
▁!	-8.37614
▁trí	-8.37954
▁bài	-8.38006
▁tiếng	-8.38378
▁D	-8.3888
anh	-8.38995
▁system	-8.39225
▁bên	-8.39416
▁find	-8.39528
iên	-8.40016
an	-8.40024
▁gần	-8.40178
▁mang	-8.40253
▁hết	-8.4028
▁nghiệp	-8.40363
▁tinh	-8.40415
ấu	-8.4076
ưởng	-8.41003
▁pháp	-8.41436
▁Anh	-8.41561
uộc	-8.41946
▁chi	-8.42134
ái	-8.42382
▁ăn	-8.42545
▁should	-8.4271
▁place	-8.42846
▁cá	-8.42989
▁giả	-8.43222
▁mạnh	-8.4355
▁data	-8.43757
▁di	-8.43777
▁help	-8.439
ận	-8.44118
▁brain	-8.44407
▁tiêu	-8.44817
▁khu	-8.45345
▁xác	-8.45761
▁bỏ	-8.46091
ủ	-8.46332
▁better	-8.46799
body	-8.47039
▁long	-8.47571
▁number	-8.47631
▁made	-8.47666
▁well	-8.4779
▁đô	-8.47875
▁đời	-8.47897
▁example	-8.48025
▁vi	-8.48279
▁đâu	-8.48551
▁game	-8.48595
▁văn	-8.48607
st	-8.48636
iểu	-8.48827
▁sát	-8.49248
▁love	-8.49313
ẩn	-8.4935
▁technolog	-8.49467
ập	-8.49477
▁after	-8.49741
ừng	-8.49776
õ	-8.50406
▁thú	-8.50728
,000	-8.50754
ảm	-8.50769
▁mất	-8.50814
ion	-8.50904
▁end	-8.51292
ree	-8.51365
▁hạn	-8.51383
▁un	-8.51521
▁litt	-8.51762
▁Các	-8.51772
▁ngoài	-8.51984
▁kiể	-8.52097
▁P	-8.52336
▁important	-8.52387
▁last	-8.52468
▁again	-8.52539
▁30	-8.52659
▁%	-8.5271
▁tra	-8.52899
▁lẽ	-8.52909
▁hướng	-8.53378
other	-8.53474
▁thử	-8.53822
▁đồ	-8.53892
▁never	-8.53958
▁la	-8.54391
▁đất	-8.54975
▁Ch	-8.55017
▁lập	-8.55169
▁giảm	-8.55293
▁đặ	-8.55448
ách	-8.55476
▁course	-8.55517
aid	-8.55642
▁him	-8.55657
▁luô	-8.56137
▁Hã	-8.56347
▁try	-8.5638
▁đấy	-8.56475
úc	-8.5664
▁da	-8.56778
▁cụ	-8.56826
ăm	-8.56889
▁phương	-8.56953
▁thought	-8.56985
▁vô	-8.57151
▁turn	-8.57228
▁sức	-8.57423
ọc	-8.58473
▁Tiế	-8.58626
ịch	-8.58762
▁cảnh	-8.58988
▁báo	-8.59356
▁lệ	-8.59701
▁khoả	-8.59917
ừa	-8.60569
▁still	-8.60656
▁lo	-8.60792
each	-8.6136
▁đạo	-8.61472
▁country	-8.61868
▁xã	-8.62005
▁Phi	-8.6207
▁vời	-8.6258
▁Tro	-8.62999
▁let	-8.6316
▁í	-8.63317
▁muc	-8.63381
▁cấp	-8.63757
oại	-8.64114
▁lắ	-8.64656
▁gặp	-8.65487
▁nối	-8.65597
▁U	-8.65613
▁power	-8.65698
ves	-8.65928
▁phủ	-8.66001
▁em	-8.66007
▁million	-8.66476
▁dịch	-8.66666
áng	-8.66867
▁khiế	-8.66886
▁50	-8.67159
▁cây	-8.67164
▁ví	-8.67623
▁How	-8.67732
▁chế	-8.67785
ext	-8.6788
▁thêm	-8.68317
▁point	-8.68657
▁nhạc	-8.69091
▁play	-8.69387
▁big	-8.69444
▁thần	-8.69525
ness	-8.6993
▁Whe	-8.70006
▁ago	-8.7004
▁giao	-8.70053
▁nhanh	-8.70198
ốc	-8.70232
óc	-8.70488
▁own	-8.70568
▁địa	-8.70619
▁đạ	-8.70809
▁create	-8.70932
ộng	-8.71075
▁tru	-8.71179
▁tục	-8.71445
áp	-8.71566
▁vực	-8.71629
▁live	-8.72057
▁xâ	-8.7227
▁nền	-8.7233
aughter	-8.72463
ại	-8.72482
▁xa	-8.72555
▁become	-8.72565
ều	-8.73026
ủng	-8.73254
▁nhóm	-8.73291
àng	-8.73345
▁person	-8.73613
▁story	-8.73656
▁grow	-8.73758
▁chọn	-8.73895
ốt	-8.7391
▁nhớ	-8.73999
▁chạ	-8.7472
▁mở	-8.74739
▁100	-8.75402
▁Quốc	-8.7546
▁phạm	-8.75512
ọi	-8.75788
▁Applau	-8.75836
▁thư	-8.7639
▁giản	-8.76805
▁feel	-8.7693
ĩ	-8.77073
▁cuố	-8.77637
ý	-8.77668
▁lợ	-8.78131
▁machine	-8.78278
▁đoán	-8.78308
▁khỏi	-8.78315
▁đình	-8.78676
2	-8.78679
▁duy	-8.78723
▁money	-8.78876
▁Do	-8.79105
▁Be	-8.79491
▁hô	-8.79772
▁bán	-8.79954
▁off	-8.80287
ween	-8.80399
▁khắ	-8.80626
▁200	-8.80786
ty	-8.80796
▁hear	-8.808
▁chu	-8.80951
▁phẩm	-8.81168
▁bit	-8.81254
▁sound	-8.81353
▁believe	-8.81826
▁old	-8.81885
▁tog	-8.82047
▁G	-8.82135
ề	-8.82338
▁video	-8.82344
▁phim	-8.82596
▁thờ	-8.8275
▁phả	-8.82927
▁few	-8.82937
▁dưới	-8.82972
ường	-8.83146
▁mắ	-8.83332
ấn	-8.8371
ry	-8.83778
▁quy	-8.83795
ren	-8.83833
▁kì	-8.84541
ống	-8.84663
▁phép	-8.84754
▁hồ	-8.84883
▁experience	-8.84933
ther	-8.85571
▁đầ	-8.85662
▁guy	-8.85903
▁Ô	-8.85914
iện	-8.85915
ted	-8.85929
▁high	-8.86044
▁school	-8.86106
▁read	-8.86203
▁reason	-8.86292
▁câ	-8.86391
ành	-8.86494
▁sin	-8.86674
▁án	-8.86993
▁li	-8.87132
▁second	-8.87263
▁viê	-8.87352
▁diện	-8.87467
ỷ	-8.8751
formation	-8.87686
hấp	-8.87803
▁luật	-8.8787
▁kid	-8.8853
▁xuống	-8.88547
guồn	-8.88666
▁vòng	-8.88739
▁dollar	-8.8913
▁computer	-8.89151
ê	-8.89167
▁quanh	-8.89177
▁lỗ	-8.89312
▁cử	-8.89349
▁ha	-8.89727
ội	-8.90104
efore	-8.90244
▁cổ	-8.90535
▁dục	-8.90569
ải	-8.90632
ùng	-8.90674
▁tội	-8.90856
▁home	-8.91015
▁sợ	-8.91029
▁Ng	-8.91081
▁vùng	-8.91425
▁For	-8.9157
rung	-8.91803
▁sort	-8.91875
ờ	-8.91962
▁toán	-8.92164
▁government	-8.92386
▁dung	-8.92388
▁yế	-8.92458
▁water	-8.92596
▁hộ	-8.92694
ways	-8.92762
▁sĩ	-8.92795
▁came	-8.9284
▁trai	-8.92964
▁trưởng	-8.9329
ẫn	-8.93321
▁No	-8.93559
▁four	-8.93682
▁chết	-8.94098
ửa	-8.94337
▁5	-8.94416
▁understand	-8.94817
▁bet	-8.94832
▁sắ	-8.95008
▁found	-8.95053
▁trợ	-8.951
ăn	-8.95184
ạn	-8.95269
▁mẫ	-8.95828
▁Gi	-8.9583
▁whole	-8.95855
▁rộng	-8.95944
ation	-8.96043
▁New	-8.96333
▁trang	-8.96349
▁thí	-8.96585
▁tỷ	-8.96667
lly	-8.96669
ết	-8.96875
▁đan	-8.97471
ting	-8.97566
iêng	-8.97634
▁bạ	-8.9778
▁Kh	-8.97805
▁phục	-8.97917
▁chắn	-8.98258
▁building	-8.9838
▁đôi	-8.98563
▁design	-8.98639
▁room	-8.98673
us	-8.98719
▁large	-8.98936
▁Wh	-8.99038
▁ngoạ	-8.99085
▁hav	-8.991
▁hard	-8.99444
▁15	-8.99697
▁too	-8.99778
▁famil	-8.99844
▁p	-8.99996
▁process	-9.00061
▁vẻ	-9.00239
▁One	-9.00621
▁hiệ	-9.00714
uổi	-9.00715
using	-9.00831
▁Cô	-9.00865
▁Sau	-9.00952
▁bấ	-9.01305
ắng	-9.01635
▁moment	-9.01959
▁đẹp	-9.01959
▁basic	-9.01996
▁kho	-9.0209
ough	-9.02267
▁tôn	-9.02489
▁wo	-9.0256
▁4	-9.02684
▁dài	-9.02798
▁thôi	-9.02824
▁căn	-9.02956
▁X	-9.02958
iêu	-9.03031
hey	-9.03065
▁lai	-9.03246
wo	-9.03366
▁chung	-9.03453
▁its	-9.03464
▁run	-9.03696
▁khoản	-9.03962
l	-9.0416
▁đoạn	-9.0423
▁Là	-9.04291
ự	-9.0438
omen	-9.04396
ttle	-9.04625
oài	-9.04638
▁xú	-9.04702
▁Uni	-9.04763
▁Độ	-9.04871
▁hậu	-9.05018
ment	-9.05325
▁kiế	-9.05407
▁Tr	-9.05483
ằng	-9.05509
ers	-9.05601
uch	-9.05628
▁Nh	-9.05666
▁ever	-9.05714
áo	-9.06193
iến	-9.06498
▁viện	-9.06815
▁nổi	-9.06876
▁particular	-9.07146
▁bàn	-9.07329
went	-9.07912
▁business	-9.07935
▁open	-9.08229
▁less	-9.08333
aybe	-9.08677
▁kia	-9.0883
▁hạ	-9.09189
▁She	-9.0936
doing	-9.09677
▁kiếm	-9.09908
ever	-9.09991
ũ	-9.10372
▁tối	-9.10479
▁per	-9.10548
ậu	-9.10588
▁small	-9.10727
▁trá	-9.10752
▁E	-9.10785
▁luận	-9.11104
▁market	-9.11122
▁matter	-9.11182
▁wrong	-9.11244
▁kẻ	-9.1135
▁Ấ	-9.11747
▁else	-9.11798
▁ơn	-9.11893
ous	-9.11942
▁doanh	-9.12242
▁American	-9.12324
hẳng	-9.1275
▁ty	-9.12952
▁ràng	-9.12975
▁light	-9.13027
▁hoà	-9.1309
▁State	-9.13134
▁gắ	-9.13356
▁future	-9.13414
▁Africa	-9.13479
▁xét	-9.13492
▁lư	-9.13599
ỡ	-9.1364
▁tuần	-9.13653
▁bad	-9.141
▁lí	-9.14124
▁hand	-9.1438
iễn	-9.14384
▁job	-9.15025
S	-9.15114
▁saying	-9.15165
iệm	-9.15365
▁imagine	-9.15497
▁vệ	-9.1552
▁lò	-9.16122
▁lives	-9.16583
ám	-9.16628
▁case	-9.16687
▁health	-9.16722
▁cu	-9.16835
▁chịu	-9.16844
or	-9.16908
▁f	-9.17207
▁đàn	-9.17443
▁TED	-9.17523
▁research	-9.17708
▁cậ	-9.17714
▁xử	-9.17741
▁communit	-9.1778
▁planet	-9.17795
▁probabl	-9.18003
▁share	-9.18004
▁tệ	-9.1805
cross	-9.18178
▁tấ	-9.18284
▁vọ	-9.18397
▁cost	-9.18433
▁khăn	-9.18715
▁phẫ	-9.18895
▁coming	-9.19123
▁answer	-9.19242
▁centur	-9.19245
▁xấu	-9.19381
▁walk	-9.19404
▁keep	-9.19427
▁nỗ	-9.19665
ồn	-9.19764
▁under	-9.19822
▁cộ	-9.19923
▁]	-9.20049
▁ngàn	-9.20255
▁quit	-9.20474
ings	-9.20568
▁en	-9.20576
▁Tru	-9.20738
▁car	-9.20805
▁[	-9.20919
▁spend	-9.21241
▁social	-9.21318
▁allow	-9.21329
▁nguy	-9.21781
▁single	-9.21861
▁vượ	-9.21958
▁nhập	-9.22102
▁mong	-9.22238
▁seem	-9.22712
▁chỗ	-9.22729
▁exact	-9.22731
▁disease	-9.22739
G	-9.22813
▁body	-9.22861
▁tạp	-9.23061
▁gắn	-9.23084
▁ngạc	-9.2312
▁build	-9.23174
stead	-9.23359
▁realize	-9.23367
▁public	-9.2351
▁pattern	-9.23629
▁kỹ	-9.23688
▁cell	-9.2374
▁thúc	-9.23799
▁sense	-9.23888
▁patient	-9.23899
away	-9.23934
▁F	-9.23934
▁sẵn	-9.24518
▁ngược	-9.24603
ẩ	-9.24927
done	-9.24933
▁vậ	-9.24963
ấp	-9.25003
▁bóng	-9.25122
ive	-9.25128
▁O	-9.25142
▁face	-9.25144
▁cha	-9.25237
▁40	-9.25257
úng	-9.25342
▁week	-9.25428
▁sure	-9.2562
▁move	-9.25651
í	-9.25671
▁billion	-9.257
ế	-9.25826
▁60	-9.25938
▁sở	-9.25951
▁To	-9.25998
▁tỉ	-9.26144
▁program	-9.26155
▁name	-9.26234
em	-9.26248
▁times	-9.26307
▁trời	-9.2646
▁ma	-9.26487
▁space	-9.26569
▁My	-9.26602
▁close	-9.26664
▁loạ	-9.26704
▁chắ	-9.26719
▁viế	-9.26993
▁chẳ	-9.27178
▁develop	-9.27224
▁left	-9.27357
▁month	-9.27368
ồng	-9.27402
▁Let	-9.27517
w	-9.27589
man	-9.27682
▁thủ	-9.27845
ằ	-9.28057
▁control	-9.28122
▁group	-9.28212
▁order	-9.28339
▁quản	-9.28425
▁makes	-9.28614
▁nhắ	-9.29234
▁Chin	-9.29272
▁set	-9.29331
▁gó	-9.29416
▁bring	-9.29498
▁possibl	-9.2971
▁trạ	-9.30025
▁parent	-9.302
▁phút	-9.30262
▁thái	-9.30276
▁simple	-9.30363
ơ	-9.30665
▁ban	-9.30846
▁thuốc	-9.31166
▁phúc	-9.31173
▁bab	-9.31319
▁deal	-9.3149
▁Vâ	-9.31539
000	-9.31565
▁mù	-9.31598
▁countr	-9.31624
▁tố	-9.3177
▁Ý	-9.32031
ưỡ	-9.32075
▁ung	-9.32076
▁hour	-9.32151
hè	-9.32299
ung	-9.32334
▁line	-9.32468
▁histor	-9.32513
▁đấu	-9.3264
▁Thậ	-9.32672
▁All	-9.328
▁speak	-9.32957
▁model	-9.33067
▁ways	-9.33302
k	-9.3341
▁chuyên	-9.3342
ao	-9.33972
▁ké	-9.33988
▁organization	-9.34047
▁interesting	-9.34418
▁/	-9.34485
▁fi	-9.34701
▁lá	-9.34771
▁energ	-9.35006
▁animal	-9.35023
▁đen	-9.3536
▁often	-9.35421
▁citi	-9.35593
▁mã	-9.35678
▁stuff	-9.36018
▁color	-9.36042
▁kỉ	-9.36107
▁kiệ	-9.36152
▁buil	-9.3617
where	-9.36327
read	-9.36473
▁onl	-9.36839
▁wom	-9.36889
▁cuốn	-9.37022
▁vui	-9.37257
ook	-9.37274
▁tổn	-9.37791
▁sư	-9.37811
▁level	-9.38075
▁minute	-9.38076
▁remember	-9.38082
▁nhiệt	-9.38486
▁true	-9.38495
▁chữa	-9.3852
hiệm	-9.38578
▁W	-9.38787
CO	-9.38939
▁step	-9.39275
less	-9.39282
▁complete	-9.3945
▁mother	-9.39695
ying	-9.39746
▁sa	-9.39802
▁interest	-9.39886
▁6	-9.3999
▁Man	-9.40002
▁project	-9.40032
▁certain	-9.40189
▁si	-9.40298
ôn	-9.40396
▁mật	-9.4055
▁hiể	-9.40781
▁York	-9.40824
▁bác	-9.40943
▁air	-9.41044
▁thẳng	-9.41108
▁societ	-9.41233
▁camera	-9.41275
▁study	-9.41336
ause	-9.41375
▁six	-9.41414
▁vũ	-9.41501
▁Ta	-9.41545
msel	-9.4156
▁lạc	-9.41573
▁music	-9.41669
▁test	-9.41746
▁lãn	-9.41796
▁far	-9.4182
▁boy	-9.41961
▁figure	-9.42071
▁tả	-9.42219
▁cắ	-9.42248
▁compani	-9.42302
▁Google	-9.42305
▁incredibl	-9.42316
▁nhiêu	-9.4245
most	-9.42619
▁value	-9.42667
▁India	-9.42735
▁21	-9.42909
▁dà	-9.43094
ìn	-9.43222
uy	-9.43446
▁soát	-9.43486
▁lead	-9.4382
▁top	-9.4393
▁đán	-9.44032
ave	-9.44134
▁phone	-9.44186
▁gen	-9.44423
▁words	-9.44474
▁19	-9.44568
▁image	-9.44578
▁state	-9.44608
ance	-9.44625
▁cạnh	-9.44652
▁dõ	-9.44897
▁mặ	-9.44967
▁phó	-9.44967
▁La	-9.44971
ful	-9.44996
gười	-9.44998
▁hi	-9.45006
hữ	-9.45241
aking	-9.45281
▁though	-9.45295
ặp	-9.45342
Ở	-9.45495
▁xin	-9.45513
▁global	-9.45586
▁ghi	-9.45609
▁cancer	-9.45631
▁khổ	-9.4566
▁thousand	-9.45685
▁watch	-9.45774
▁happening	-9.45789
▁tức	-9.46271
iểm	-9.463
ld	-9.46505
ững	-9.4652
▁nam	-9.46609
▁chân	-9.46652
▁Her	-9.46653
▁lờ	-9.46687
▁both	-9.46694
▁black	-9.47122
uống	-9.47126
iền	-9.47198
▁70	-9.47399
▁bọ	-9.47434
▁am	-9.47484
▁best	-9.4753
hơi	-9.47575
▁đích	-9.47579
▁mind	-9.47727
▁happ	-9.47852
▁scientist	-9.47878
▁education	-9.47889
▁lự	-9.47913
▁since	-9.47945
▁team	-9.47972
cy	-9.48032
ra	-9.48672
oursel	-9.48844
▁thả	-9.48883
▁conversation	-9.49021
company	-9.49042
▁intelligen	-9.49058
▁trust	-9.49284
ey	-9.49374
▁feeling	-9.49453
arbon	-9.49554
▁cà	-9.49701
4	-9.4979
▁Or	-9.49804
est	-9.49873
▁tấn	-9.5011
▁girl	-9.50168
age	-9.50309
▁age	-9.50318
▁nhờ	-9.5035
▁science	-9.50361
▁product	-9.50373
▁men	-9.50429
▁As	-9.50614
▁safe	-9.50616
new	-9.50783
ật	-9.51058
▁challenge	-9.51572
▁discover	-9.51686
▁phổ	-9.51846
▁experiment	-9.51862
▁25	-9.52007
▁phi	-9.52036
▁bậ	-9.52211
▁lã	-9.5223
▁nghi	-9.52377
fore	-9.52429
▁African	-9.52435
▁view	-9.52462
▁language	-9.52544
à	-9.52586
▁thiện	-9.52633
▁huge	-9.52635
▁base	-9.53217
▁pay	-9.53237
▁ye	-9.53304
f	-9.53743
▁climate	-9.53754
▁deep	-9.53859
▁gồ	-9.53922
▁hope	-9.54154
▁economic	-9.54423
▁mề	-9.54698
▁result	-9.54962
▁hundred	-9.54966
▁form	-9.5535
▁action	-9.55362
▁trừ	-9.55405
hứng	-9.5553
▁issue	-9.55561
alf	-9.55583
▁Al	-9.5584
▁triệ	-9.55952
▁term	-9.56075
chia	-9.56085
▁sàng	-9.56102
▁difference	-9.56263
▁quick	-9.56273
▁Every	-9.56346
8	-9.56354
▁Con	-9.56461
▁dây	-9.56811
▁tầ	-9.56848
hương	-9.57022
▁ho	-9.57215
▁kê	-9.57328
▁difficult	-9.57453
▁pret	-9.57467
▁amazing	-9.57481
▁ô	-9.57592
▁băn	-9.57879
▁sang	-9.58086
▁liv	-9.58159
êm	-9.58176
òng	-9.58216
te	-9.5851
▁side	-9.58969
once	-9.59005
▁inside	-9.5901
▁dò	-9.59029
any	-9.59048
▁piece	-9.59116
▁stop	-9.59151
▁đợi	-9.5919
▁scale	-9.5955
iề	-9.59565
▁18	-9.59789
▁friends	-9.59818
▁thậ	-9.60288
▁ngờ	-9.60333
▁drive	-9.60602
▁toà	-9.60736
▁type	-9.60816
▁tră	-9.60951
▁tầng	-9.61035
▁exist	-9.61173
▁head	-9.61206
gử	-9.61258
▁relationship	-9.61302
▁film	-9.6135
▁picture	-9.61402
ese	-9.61448
▁giấ	-9.61449
▁listen	-9.61496
ory	-9.61582
uôn	-9.61602
▁dàn	-9.61751
ary	-9.61848
ếp	-9.61874
be	-9.61897
▁rừng	-9.62182
▁John	-9.62359
▁food	-9.62636
▁bề	-9.62774
▁Hiệ	-9.62909
▁past	-9.62915
▁ngủ	-9.63151
L	-9.6333
▁co	-9.63359
book	-9.63526
▁độc	-9.63598
▁8	-9.6364
▁tool	-9.63689
▁Some	-9.63696
▁media	-9.6375
iển	-9.63835
▁sneaker	-9.63955
▁CA	-9.63972
▁đo	-9.64161
▁vai	-9.64172
▁full	-9.64286
▁lạ	-9.64501
hế	-9.64704
▁decide	-9.64799
▁chố	-9.64804
▁gá	-9.64993
king	-9.65036
▁culture	-9.65422
▁service	-9.65697
▁stori	-9.6581
▁hổ	-9.65873
▁cấ	-9.65914
▁lầ	-9.66143
rs	-9.66321
▁care	-9.66336
ậy	-9.66567
▁common	-9.66669
▁entire	-9.66673
id	-9.66851
▁treat	-9.66921
▁book	-9.66932
▁clear	-9.67068
▁tran	-9.67094
▁America	-9.67217
▁nghiê	-9.67283
ish	-9.67417
om	-9.6747
ợ	-9.67529
▁tree	-9.68027
▁DNA	-9.68034
▁movement	-9.68069
▁12	-9.6808
▁Ok	-9.6817
▁online	-9.68179
▁must	-9.68451
▁bí	-9.6863
ich	-9.68825
▁Châ	-9.68909
▁late	-9.69139
▁young	-9.69243
▁count	-9.69284
ác	-9.69374
▁student	-9.6947
▁Hoa	-9.69536
▁heart	-9.69614
▁thấp	-9.69757
▁đỡ	-9.69931
een	-9.70083
ọn	-9.70106
▁environment	-9.70181
▁lộ	-9.70232
▁leave	-9.70322
▁nghị	-9.70497
▁natural	-9.70731
▁couple	-9.70888
▁dimension	-9.70892
▁nhiễm	-9.70905
▁đả	-9.71188
▁trầ	-9.71319
▁continue	-9.71338
▁Tây	-9.71469
ble	-9.71676
▁structure	-9.7169
▁Cho	-9.71862
▁tim	-9.7189
▁political	-9.72063
út	-9.72161
▁network	-9.72403
aw	-9.72444
▁voice	-9.72505
▁third	-9.72548
▁risk	-9.7255
▁emotion	-9.72689
▁thá	-9.72906
hỉ	-9.72912
ỹ	-9.73228
▁sometime	-9.73441
▁plan	-9.7358
▁follow	-9.73656
▁opportunit	-9.73813
ạo	-9.73855
▁Âu	-9.73881
▁Face	-9.73881
▁works	-9.73894
▁OK	-9.73916
▁seven	-9.7396
▁event	-9.74566
▁war	-9.7477
▁cư	-9.74797
▁chó	-9.75028
ai	-9.75047
▁Ph	-9.75068
ến	-9.75199
▁London	-9.75297
▁forest	-9.75298
▁outside	-9.75331
▁Cá	-9.75362
▁tuyến	-9.75722
▁Tuy	-9.75784
▁drug	-9.75835
▁Nigeria	-9.75923
▁tá	-9.76118
▁hỗ	-9.76178
▁Nam	-9.76275
▁giây	-9.76307
▁site	-9.76405
▁eas	-9.76538
▁device	-9.76817
▁recent	-9.7682
hậm	-9.76833
▁innovation	-9.7684
▁poor	-9.76851
▁attenti	-9.76871
▁fear	-9.76999
▁An	-9.77119
▁solution	-9.77152
uyện	-9.775
▁quen	-9.77657
▁buy	-9.77702
▁increase	-9.77899
òn	-9.77942
▁measure	-9.78319
▁major	-9.78348
▁email	-9.78359
▁beautiful	-9.7836
▁street	-9.78362
▁eight	-9.78458
▁amount	-9.78476
▁medical	-9.78518
▁focus	-9.78653
▁y	-9.78766
ổn	-9.78771
hese	-9.78819
▁hold	-9.78873
▁tuý	-9.78984
▁front	-9.79037
uối	-9.7937
▁write	-9.79507
▁self	-9.79557
▁individual	-9.79919
ong	-9.7998
▁area	-9.80049
▁fast	-9.80065
▁fel	-9.80198
▁chấ	-9.80298
▁nghiệ	-9.80354
hiến	-9.80485
▁90	-9.80488
▁Qu	-9.80738
▁hà	-9.81032
▁save	-9.81175
▁abilit	-9.81234
▁soft	-9.81322
old	-9.81361
ne	-9.81444
▁Brazil	-9.81495
▁free	-9.81679
▁activit	-9.8177
ọng	-9.81858
▁sex	-9.81874
▁tốn	-9.81892
▁Tạ	-9.8198
▁điên	-9.82018
▁behavior	-9.8204
▁già	-9.82197
rong	-9.82225
▁đổ	-9.82377
▁du	-9.8242
he	-9.82428
as	-9.82465
▁sơ	-9.82548
ic	-9.82686
ua	-9.82769
▁econom	-9.82784
me	-9.82897
▁mak	-9.83073
▁population	-9.83194
▁chờ	-9.83213
▁paper	-9.83215
▁chụ	-9.83257
▁generation	-9.83378
▁beca	-9.8339
▁vợ	-9.83391
▁e	-9.83502
▁worth	-9.83557
▁lab	-9.83669
óng	-9.84028
▁kính	-9.84116
▁buồn	-9.84246
▁eyes	-9.8438
▁art	-9.84613
▁thiên	-9.84702
▁religion	-9.848
hẳn	-9.84879
▁giàu	-9.85075
▁lược	-9.85095
▁along	-9.85135
▁biển	-9.85455
▁support	-9.85723
▁connect	-9.86055
▁NSA	-9.86415
▁internet	-9.86421
▁powerful	-9.86444
▁dur	-9.86447
▁bigge	-9.86469
▁lớ	-9.86609
▁connection	-9.86611
▁leaders	-9.86666
▁Bà	-9.86714
húng	-9.8673
▁house	-9.86796
ten	-9.86839
den	-9.86861
▁wait	-9.87049
▁ước	-9.87061
▁local	-9.87217
▁cut	-9.87507
▁tươ	-9.8771
▁produce	-9.88013
▁Kenya	-9.88109
▁Domiti	-9.88111
▁female	-9.88111
▁Twitter	-9.88113
▁evidence	-9.88115
▁rest	-9.88136
▁solve	-9.88166
▁current	-9.88212
▁pick	-9.8826
▁strateg	-9.88276
hiều	-9.88377
to	-9.88399
▁dĩ	-9.8849
▁attack	-9.88517
▁win	-9.88615
▁On	-9.88955
ar	-9.89042
▁Ai	-9.89109
▁Appl	-9.89139
▁hoa	-9.89251
▁speci	-9.89305
ã	-9.89679
▁list	-9.89765
▁low	-9.89801
▁accept	-9.89842
▁wish	-9.89868
ware	-9.90012
▁màn	-9.90022
▁nhảy	-9.90041
▁ones	-9.90197
▁size	-9.90206
▁tắ	-9.90359
▁sleep	-9.90363
▁industr	-9.90468
ốn	-9.90476
▁word	-9.90522
▁Ba	-9.90641
▁fall	-9.90754
▁Y	-9.90772
▁train	-9.91055
▁lồ	-9.91075
▁giọ	-9.91282
▁cỗ	-9.91322
ỉ	-9.91409
ù	-9.91546
▁suất	-9.91557
▁effect	-9.91584
▁impact	-9.91588
▁physical	-9.9159
▁doctor	-9.91596
▁obvious	-9.91598
▁access	-9.91618
ảy	-9.91628
hen	-9.91634
▁father	-9.91654
▁7	-9.91886
▁character	-9.9189
▁Cali	-9.91897
▁near	-9.91968
▁force	-9.92065
▁starte	-9.92153
forni	-9.92257
▁phiế	-9.92351
▁Thứ	-9.92622
hút	-9.92696
▁act	-9.9284
▁ngô	-9.93019
▁news	-9.93263
▁Just	-9.93295
▁giấy	-9.93309
▁direct	-9.93337
uận	-9.93361
▁explain	-9.93449
lity	-9.93559
▁mạch	-9.93598
etting	-9.93814
▁khoá	-9.93818
▁tín	-9.93823
▁teach	-9.93889
▁approach	-9.94064
1	-9.94194
▁role	-9.94208
▁strong	-9.94306
▁chang	-9.94454
▁simpl	-9.94569
▁lấ	-9.94647
▁nổ	-9.94677
ột	-9.94818
▁earl	-9.95042
▁citizen	-9.95199
▁green	-9.95238
▁digital	-9.95367
ữa	-9.95382
ảng	-9.95458
▁500	-9.95525
▁development	-9.95526
▁gas	-9.95552
▁reach	-9.95909
▁predict	-9.96099
ụ	-9.96113
▁Ngà	-9.96252
▁die	-9.96341
tting	-9.96348
▁trì	-9.96634
▁ngh	-9.96757
▁protect	-9.96929
▁smart	-9.96988
▁normal	-9.97036
▁Mexico	-9.97045
▁situation	-9.9705
son	-9.97065
▁invest	-9.97089
▁actua	-9.97094
▁chuột	-9.97162
▁spen	-9.97164
▁source	-9.97431
▁Bộ	-9.97505
▁môn	-9.97519
▁thoả	-9.97633
it	-9.97677
use	-9.97702
▁đè	-9.98008
▁gay	-9.9808
▁đe	-9.98106
▁bang	-9.98125
▁recognize	-9.9826
▁stand	-9.98292
hụ	-9.98333
▁arm	-9.9849
▁thank	-9.98563
▁bor	-9.98619
▁message	-9.98935
▁serious	-9.98951
▁knowledge	-9.98954
▁police	-9.99
▁wonder	-9.99002
▁Được	-9.99005
▁policy	-9.99108
▁fail	-9.9914
▁field	-9.99179
▁nắ	-9.99221
hap	-9.99505
▁coi	-9.99607
▁Trá	-9.9995
ợi	-9.99951
▁send	-10.0001
▁rate	-10.0014
ắ	-10.0021
▁memor	-10.0032
▁require	-10.0061
the	-10.0068
▁material	-10.0077
men	-10.0078
▁huỷ	-10.0081
▁hospital	-10.0086
▁context	-10.0086
▁hát	-10.0094
▁absolute	-10.0095
▁Khá	-10.0102
tion	-10.0115
▁bè	-10.0123
▁crime	-10.0124
ày	-10.0125
▁nhu	-10.0128
▁tà	-10.0139
▁trắng	-10.0157
V	-10.0166
▁hạt	-10.0168
▁present	-10.017
▁condition	-10.0172
ries	-10.0195
▁trống	-10.0204
▁đự	-10.0231
▁class	-10.0239
verage	-10.024
il	-10.0248
▁key	-10.026
▁ủng	-10.0271
ỵ	-10.0272
▁notice	-10.0274
▁After	-10.0281
▁trụ	-10.0281
▁perfect	-10.0282
▁beginning	-10.0282
▁massive	-10.0282
▁electric	-10.0287
▁mại	-10.0292
▁lướ	-10.0295
▁máu	-10.0302
▁quâ	-10.0315
▁Thank	-10.0319
▁books	-10.0336
▁break	-10.034
▁friend	-10.0352
▁Oh	-10.0356
▁tiế	-10.0361
▁tu	-10.0375
iness	-10.0377
▁i	-10.0391
▁pr	-10.0403
▁goal	-10.0416
▁stay	-10.0427
older	-10.043
▁night	-10.0437
▁kim	-10.0443
▁shape	-10.0452
▁guess	-10.0472
▁sớm	-10.0483
▁tuệ	-10.0485
▁consider	-10.0485
▁add	-10.0489
▁zero	-10.0489
ặt	-10.0494
▁check	-10.0498
▁Ho	-10.0521
▁đỏ	-10.0541
▁provide	-10.0544
now	-10.0546
▁meaning	-10.0547
▁screen	-10.0552
▁vĩ	-10.0553
▁13	-10.0554
eople	-10.0558
▁revolution	-10.0603
▁dream	-10.0604
▁content	-10.0609
▁table	-10.0616
▁final	-10.0637
▁Who	-10.0643
ét	-10.0644
ớp	-10.0658
▁track	-10.066
▁chị	-10.0665
▁agree	-10.0668
▁criminal	-10.0678
▁nú	-10.0685
▁decision	-10.0687
▁death	-10.069
ặ	-10.0705
▁vân	-10.0709
▁ghé	-10.0726
▁nice	-10.0737
▁sit	-10.0741
ổ	-10.0756
D	-10.0757
▁block	-10.0788
▁9	-10.0799
▁giỏ	-10.0814
connected	-10.0815
▁Mặ	-10.0817
▁nation	-10.0825
▁hoảng	-10.0825
▁tắc	-10.0833
▁male	-10.0834
▁fund	-10.0848
▁law	-10.0859
▁South	-10.0875
▁short	-10.0877
$	-10.0884
▁Kosov	-10.0893
▁decade	-10.0894
▁protein	-10.0894
ither	-10.0895
▁positive	-10.0898
▁sudden	-10.0899
▁middle	-10.09
▁smell	-10.09
▁extra	-10.0962
▁rich	-10.0971
▁80	-10.0977
▁mộ	-10.0981
uỷ	-10.0993
▁sub	-10.0994
▁o	-10.1028
▁practice	-10.1042
▁factor	-10.1047
▁includ	-10.108
▁expect	-10.1082
▁mái	-10.1107
▁response	-10.1108
▁travel	-10.1109
9	-10.1112
▁11	-10.1114
▁Look	-10.1116
▁khứ	-10.1132
▁son	-10.1136
▁writing	-10.1141
▁Babb	-10.1142
▁cứng	-10.1145
ă	-10.1145
▁đế	-10.1149
ệt	-10.1161
▁nộ	-10.1188
▁thre	-10.1267
tic	-10.1273
▁record	-10.128
▁plant	-10.1284
▁stick	-10.1295
▁cover	-10.13
▁office	-10.1301
▁Europe	-10.1315
▁Of	-10.1323
▁Oklahoma	-10.1324
▁wonderful	-10.1325
▁secret	-10.133
▁violen	-10.1336
so	-10.134
▁manage	-10.1341
▁rea	-10.1341
▁page	-10.1354
▁similar	-10.1358
▁đỉ	-10.1368
▁task	-10.1378
▁lesson	-10.1381
▁map	-10.1385
▁effective	-10.1395
▁Á	-10.14
▁tri	-10.14
▁nhiệ	-10.141
▁kill	-10.142
▁ground	-10.1421
ater	-10.1431
▁identit	-10.1441
▁surprise	-10.1445
▁bi	-10.1451
▁general	-10.1463
▁web	-10.1472
I	-10.1482
▁special	-10.1491
▁touch	-10.1498
▁whil	-10.1506
▁thịt	-10.1509
▁function	-10.1512
▁equal	-10.1516
▁studie	-10.1523
▁Can	-10.1532
▁nặ	-10.1543
▁dị	-10.1554
▁dương	-10.1554
▁begin	-10.1555
▁hair	-10.1557
▁cool	-10.1561
etty	-10.1563
▁Đi	-10.1568
▁extreme	-10.1569
▁pass	-10.1589
▁pho	-10.1591
▁movi	-10.1614
▁Tiến	-10.1641
▁terrorist	-10.1647
ical	-10.165
▁fight	-10.1662
▁mố	-10.1678
3	-10.1681
án	-10.1688
▁Ma	-10.169
▁diệu	-10.1699
ntil	-10.1726
hay	-10.1729
wife	-10.1736
▁tàn	-10.1759
ô	-10.177
▁CPU	-10.1771
▁bạc	-10.1772
▁specific	-10.1775
▁communication	-10.1779
▁sánh	-10.1795
▁God	-10.1804
▁só	-10.1827
um	-10.185
▁depend	-10.187
▁box	-10.1872
▁Yes	-10.1914
▁truth	-10.1918
▁bank	-10.1918
▁account	-10.1925
▁represent	-10.1934
▁Mich	-10.1935
▁né	-10.1952
▁fun	-10.1959
▁personal	-10.1961
▁im	-10.1964
▁doạ	-10.1966
▁non	-10.1975
lf	-10.1975
▁kí	-10.1975
wood	-10.1978
▁limit	-10.1992
▁cướ	-10.1997
▁ball	-10.1998
ạp	-10.1998
▁civil	-10.1999
▁period	-10.2004
▁Afghan	-10.2005
▁colleague	-10.2006
▁speech	-10.2006
▁resource	-10.2006
▁pound	-10.2017
▁gố	-10.2021
▁opposit	-10.2024
▁thoát	-10.2025
▁blood	-10.2026
▁affair	-10.2029
▁cự	-10.2029
▁master	-10.2036
▁price	-10.2052
▁Even	-10.2057
6	-10.2057
▁By	-10.2057
▁beh	-10.206
▁nhé	-10.207
▁mụ	-10.2071
▁excit	-10.2074
ice	-10.2077
▁total	-10.2079
▁fair	-10.2086
ard	-10.2087
▁bướ	-10.2089
▁Not	-10.2094
▁huy	-10.2095
▁chữ	-10.2108
▁quê	-10.211
▁fix	-10.2148
▁deliver	-10.2152
▁ngó	-10.2154
7	-10.2173
▁tỏ	-10.2184
hép	-10.2189
,	-10.2216
▁tù	-10.2217
▁Dr	-10.2221
▁GDP	-10.2242
▁subject	-10.2243
▁Amazon	-10.2244
▁chemical	-10.2244
ind	-10.2245
▁tường	-10.2245
▁among	-10.226
▁shift	-10.2261
▁AI	-10.2261
▁nguyện	-10.2268
▁Canad	-10.2269
▁involve	-10.2281
▁đẳng	-10.2287
ơn	-10.2287
more	-10.2295
▁bott	-10.2304
▁ngự	-10.2315
R	-10.2319
▁Bo	-10.2341
▁lăn	-10.2412
ưa	-10.2415
▁At	-10.2427
▁Mà	-10.2442
▁mũ	-10.2443
▁ư	-10.2448
▁cause	-10.2456
▁writ	-10.2456
▁Thu	-10.2457
ả	-10.2468
ược	-10.2471
▁sun	-10.2484
K	-10.2486
▁fundamental	-10.2488
▁remain	-10.2488
▁suffer	-10.2488
▁blue	-10.249
▁offer	-10.251
▁nhạ	-10.2512
▁photograph	-10.252
▁hit	-10.2529
▁meeting	-10.2536
▁improve	-10.2539
el	-10.2541
nature	-10.2553
▁nâ	-10.2565
▁dis	-10.2571
ền	-10.2594
M	-10.2605
▁món	-10.2612
▁tiề	-10.2616
▁necessar	-10.2618
ent	-10.2639
▁struggle	-10.2647
▁tend	-10.2651
▁xế	-10.2681
▁describe	-10.2683
▁unit	-10.2689
▁gà	-10.2703
▁scan	-10.2728
▁khuyế	-10.2734
▁object	-10.2735
▁Iraq	-10.2736
▁Gaza	-10.2736
▁return	-10.2738
▁success	-10.2738
▁private	-10.2739
▁ro	-10.2743
▁center	-10.2745
▁audience	-10.2757
▁Mos	-10.2783
all	-10.279
x	-10.2791
▁thơ	-10.2792
▁tộc	-10.28
▁chance	-10.2817
oàn	-10.2819
▁post	-10.2831
alone	-10.2842
▁hả	-10.2843
▁West	-10.2881
b	-10.2881
▁report	-10.2893
aught	-10.2893
risis	-10.2899
▁adult	-10.2919
5	-10.2923
▁chă	-10.2946
way	-10.2947
▁Vide	-10.2949
ỏng	-10.2984
▁morning	-10.2994
▁surface	-10.2994
▁consequence	-10.2995
▁international	-10.2996
▁democrac	-10.3
▁leader	-10.3004
▁mò	-10.3009
▁dead	-10.3011
C	-10.3052
▁Are	-10.3065
▁eye	-10.3079
▁bas	-10.3082
▁thoạ	-10.3105
P	-10.3105
▁straight	-10.3117
▁match	-10.3119
▁pain	-10.3145
▁Ha	-10.3179
uyến	-10.3194
mer	-10.3199
▁brains	-10.3215
nce	-10.3224
▁Hi	-10.3224
N	-10.3244
▁Earth	-10.3256
▁priva	-10.3256
ok	-10.3257
▁quyển	-10.3257
▁pressure	-10.3257
▁molecule	-10.3261
▁Nike	-10.3262
vail	-10.3263
▁Wal	-10.3274
▁nhẹ	-10.3275
▁affect	-10.3279
▁virus	-10.328
▁honest	-10.3281
▁kha	-10.3313
▁Ou	-10.3323
▁Thái	-10.3325
▁hôn	-10.3329
▁Then	-10.334
▁wall	-10.3343
ite	-10.3347
▁Maybe	-10.3366
▁pull	-10.3367
▁teacher	-10.3399
▁engage	-10.3401
▁Dù	-10.3412
▁thô	-10.3417
▁sót	-10.3422
▁hot	-10.3447
erson	-10.3447
▁earlie	-10.3449
▁miệ	-10.3468
▁capture	-10.3468
▁flow	-10.3474
▁toward	-10.3508
ning	-10.3516
▁Giá	-10.3519
▁Ả	-10.3521
▁First	-10.3527
▁conflict	-10.3527
▁enormous	-10.3527
▁modern	-10.3527
▁ngoái	-10.353
▁concern	-10.3536
▁genetic	-10.3538
▁tật	-10.3538
▁birth	-10.3548
▁worse	-10.3548
▁depressi	-10.3551
▁Đất	-10.3552
▁carry	-10.3555
▁anatom	-10.3559
▁address	-10.3569
ầ	-10.3583
▁sever	-10.3588
▁sad	-10.3591
▁Sa	-10.3592
▁mư	-10.3602
▁politic	-10.3603
▁lửa	-10.3624
▁17	-10.3645
▁chá	-10.3652
▁join	-10.3656
▁khán	-10.3666
▁mission	-10.3677
▁path	-10.3677
red	-10.3683
▁Indian	-10.37
▁land	-10.3733
▁đò	-10.3746
▁Việ	-10.3764
▁Cả	-10.3775
▁securit	-10.3787
istan	-10.3788
▁Brit	-10.3791
▁thầ	-10.3792
▁Go	-10.38
▁advance	-10.3804
▁circuit	-10.3804
▁algorithm	-10.3805
▁potential	-10.3805
▁medicine	-10.3806
▁fee	-10.381
uỳ	-10.381
▁khớp	-10.3811
▁progress	-10.3827
▁appear	-10.3835
▁nghỉ	-10.3837
▁trú	-10.3837
▁stock	-10.384
▁efficient	-10.3851
▁pair	-10.387
▁sụ	-10.3876
▁stage	-10.3878
ạng	-10.3895
▁manufactur	-10.3904
▁invent	-10.3931
▁mass	-10.3932
hắn	-10.3936
▁North	-10.395
▁nóng	-10.3961
ậm	-10.3966
▁trư	-10.3973
▁yes	-10.398
▁broke	-10.3987
yên	-10.399
▁giv	-10.3992
am	-10.4016
▁23	-10.4023
gay	-10.4026
àm	-10.4028
▁Ju	-10.4034
▁researcher	-10.4034
▁wind	-10.4042
▁World	-10.4089
▁oxygen	-10.409
▁college	-10.409
▁website	-10.409
▁mathematic	-10.409
▁essential	-10.409
▁dangerous	-10.4091
▁freedom	-10.4091
▁successful	-10.4091
▁beetle	-10.4097
▁scientific	-10.4113
▁mảnh	-10.4114
▁conscious	-10.4118
▁usual	-10.4131
▁bổ	-10.4141
▁agenc	-10.4143
ily	-10.4152
▁lạnh	-10.4158
▁creative	-10.4162
▁Sahara	-10.4168
rote	-10.4178
▁ngẫ	-10.4197
▁King	-10.4219
how	-10.4222
▁rủ	-10.4231
nt	-10.4238
▁eat	-10.4243
▁traditional	-10.4248
▁willing	-10.4253
▁150	-10.4254
▁main	-10.4254
la	-10.4256
cule	-10.4301
▁multi	-10.4311
▁text	-10.4311
land	-10.4319
▁print	-10.4327
▁ngắ	-10.4337
hing	-10.434
▁sá	-10.4342
ie	-10.4346
came	-10.4368
hải	-10.4382
▁ocean	-10.4384
▁favorite	-10.4384
▁folk	-10.4387
▁typical	-10.4388
▁benefit	-10.4388
▁bã	-10.4393
▁monitor	-10.4397
▁400	-10.4408
T	-10.4409
ought	-10.4419
▁0	-10.4422
▁corrupt	-10.4423
▁trốn	-10.4423
▁critical	-10.4441
hực	-10.4442
ake	-10.4443
▁search	-10.445
▁national	-10.445
▁pro	-10.4459
▁mắn	-10.4463
▁complex	-10.4463
▁chậm	-10.447
▁móc	-10.4497
▁lộn	-10.4507
▁define	-10.4524
▁aware	-10.4531
▁states	-10.4532
▁fire	-10.4538
▁Ed	-10.4556
▁forward	-10.4557
rom	-10.456
▁chặn	-10.4567
▁hồn	-10.4567
▁kẹ	-10.4574
ian	-10.4575
ors	-10.4605
▁emotional	-10.4614
▁Re	-10.4617
▁Where	-10.4625
▁hiếm	-10.4632
▁creativ	-10.4635
▁lu	-10.4635
ving	-10.4644
ked	-10.4651
ớ	-10.466
▁de	-10.467
▁War	-10.4682
▁cacbon	-10.4686
▁target	-10.4687
▁dinner	-10.4687
▁sector	-10.4687
▁random	-10.4691
▁Parkin	-10.4694
▁Think	-10.4696
▁direction	-10.4697
▁worry	-10.4699
▁journalist	-10.4707
▁transform	-10.471
▁telephone	-10.4719
▁choice	-10.4726
▁14	-10.4729
▁heat	-10.4729
ill	-10.473
zhe	-10.4731
▁operati	-10.4734
▁dã	-10.4734
▁breath	-10.4737
▁hy	-10.4741
▁kị	-10.4743
ery	-10.4761
▁mai	-10.4762
▁rule	-10.4774
▁los	-10.478
inste	-10.4789
▁Ze	-10.4797
▁lưỡ	-10.4801
▁artist	-10.4821
▁Alexa	-10.4848
▁Chris	-10.4855
▁relate	-10.4857
▁song	-10.4863
kay	-10.4863
▁Phả	-10.4875
▁lan	-10.4879
▁24	-10.4905
▁com	-10.4916
▁draw	-10.4928
et	-10.493
▁collect	-10.4935
▁Hai	-10.4948
▁Dav	-10.4977
▁ninh	-10.4983
▁novel	-10.4998
▁institution	-10.4998
▁Proust	-10.4999
▁jealous	-10.4999
▁resilien	-10.4999
▁sister	-10.5004
▁emission	-10.5007
til	-10.501
▁ultimate	-10.5013
iệp	-10.5014
▁rồ	-10.503
▁vision	-10.5038
▁relative	-10.5056
raz	-10.5061
ood	-10.5071
ắn	-10.5089
▁finding	-10.509
▁surger	-10.5101
▁gap	-10.5104
▁rố	-10.5108
▁Mart	-10.5109
▁soon	-10.5115
▁driv	-10.5116
ta	-10.5126
▁199	-10.5126
ization	-10.5133
ton	-10.5145
ver	-10.5147
ẳng	-10.515
▁pre	-10.5159
▁thắ	-10.5179
▁châ	-10.5183
bel	-10.52
▁cậy	-10.5205
▁chả	-10.5206
▁drugs	-10.5211
▁Nga	-10.5216
iệc	-10.5221
ine	-10.5229
▁univers	-10.5235
▁inde	-10.5254
▁super	-10.5256
▁Act	-10.5257
▁bone	-10.5257
▁xoa	-10.5264
▁22	-10.5265
ệnh	-10.5277
▁slow	-10.5297
▁biên	-10.5304
▁Mar	-10.5311
▁tô	-10.5314
▁mì	-10.532
▁dark	-10.532
▁complicat	-10.5322
▁dặm	-10.5323
▁Pakistan	-10.5324
▁increasing	-10.5331
▁chì	-10.5342
▁transformation	-10.5346
ệ	-10.5352
▁shame	-10.5356
▁sạch	-10.5357
▁suggest	-10.5358
▁hide	-10.5363
▁professional	-10.5376
▁engineer	-10.5377
hi	-10.5381
▁spot	-10.5382
▁hư	-10.5392
▁rise	-10.5395
▁original	-10.5397
▁achieve	-10.5404
▁daughter	-10.5409
▁trade	-10.541
▁Cứ	-10.5433
▁reduce	-10.544
▁operation	-10.5462
▁lack	-10.5464
ughter	-10.5467
ts	-10.548
ia	-10.5489
taking	-10.5496
▁bus	-10.5496
▁Bắ	-10.5498
▁sell	-10.5514
▁fly	-10.5518
standing	-10.552
▁Từ	-10.5521
▁hung	-10.5531
▁truy	-10.5539
▁meant	-10.5539
▁wear	-10.555
▁tán	-10.5577
mobile	-10.5592
ad	-10.5592
ão	-10.5616
▁nuô	-10.5621
uý	-10.5624
▁mine	-10.5627
▁except	-10.5639
▁prove	-10.564
▁CEO	-10.5653
▁transport	-10.5655
▁Congress	-10.5655
▁competition	-10.5655
▁spread	-10.5657
▁rẻ	-10.5664
▁option	-10.5664
▁Over	-10.5668
▁vulnerab	-10.5668
▁pig	-10.5673
▁red	-10.5674
east	-10.5676
▁wheel	-10.5682
▁income	-10.5693
▁gã	-10.5696
▁thumb	-10.5697
▁nhằ	-10.5698
▁chán	-10.5706
▁đù	-10.5716
▁consumer	-10.5728
▁rú	-10.5731
▁khẩ	-10.574
▁damage	-10.5756
▁gâ	-10.576
▁lũ	-10.576
▁determine	-10.5765
▁tò	-10.5767
kept	-10.5768
▁bụ	-10.5768
z	-10.5769
▁threat	-10.5782
▁player	-10.5787
uld	-10.5805
▁humanit	-10.5807
▁lặ	-10.5811
ground	-10.5817
▁ngà	-10.5819
ĩa	-10.5819
▁cã	-10.5819
▁Su	-10.5854
▁easi	-10.5856
▁crack	-10.5884
▁star	-10.5893
ộp	-10.5909
▁ả	-10.5915
▁surve	-10.5927
▁hè	-10.5944
▁chip	-10.5962
▁raise	-10.5982
ượng	-10.5989
▁Yea	-10.5991
▁push	-10.5992
▁Doug	-10.6
▁marriage	-10.6008
▁negative	-10.601
▁dối	-10.6013
▁mouse	-10.6015
▁sexual	-10.6016
▁career	-10.6018
▁rượ	-10.6019
▁clean	-10.6021
▁nhị	-10.6023
▁interact	-10.6025
▁túi	-10.6031
▁Liên	-10.605
êu	-10.6072
▁drawing	-10.6082
▁capital	-10.6083
▁user	-10.6086
▁card	-10.6089
▁Bang	-10.6096
▁Theo	-10.6111
▁gợ	-10.615
▁perform	-10.6151
▁Qua	-10.6154
ú	-10.6162
▁movie	-10.6165
head	-10.6167
elling	-10.6168
▁198	-10.6184
▁đắ	-10.6188
▁sign	-10.6189
ur	-10.6191
▁dad	-10.6196
▁fine	-10.6198
▁kiên	-10.6206
át	-10.6243
▁bó	-10.6245
▁Chín	-10.6247
▁excite	-10.625
▁Giả	-10.6252
work	-10.6272
▁Asia	-10.6274
ize	-10.6277
gan	-10.6283
iếng	-10.6283
▁Hà	-10.6285
ective	-10.6295
▁lea	-10.6305
▁tax	-10.6328
ow	-10.6335
▁addict	-10.6353
▁Mẹ	-10.6355
▁extraordinar	-10.6357
▁chicken	-10.6357
▁further	-10.6357
▁politician	-10.6357
▁persp	-10.6364
▁Dự	-10.6368
▁1970	-10.6371
▁literal	-10.6374
▁prediction	-10.6381
▁slight	-10.6382
▁surprising	-10.6384
▁avoid	-10.6388
▁skill	-10.6389
▁road	-10.6395
rew	-10.6398
ring	-10.641
ortality	-10.6414
▁u	-10.642
▁miles	-10.642
▁East	-10.6421
▁concept	-10.6428
▁dance	-10.644
▁Am	-10.6443
▁brand	-10.6452
áu	-10.6456
▁Engl	-10.6493
▁xong	-10.6497
▁lừa	-10.6501
ated	-10.6503
▁fit	-10.6505
▁qualit	-10.6513
▁Bec	-10.6522
▁Lan	-10.6534
hoảng	-10.6541
oing	-10.6549
▁sea	-10.6558
▁loss	-10.6567
ome	-10.6571
▁ngư	-10.6585
▁link	-10.6587
▁diversit	-10.6587
▁floor	-10.6592
▁thận	-10.6598
▁tí	-10.6599
▁whe	-10.6607
▁drop	-10.6614
special	-10.6628
amine	-10.6633
▁store	-10.6641
ol	-10.6642
▁mừng	-10.6643
▁hầ	-10.6644
ạt	-10.6649
house	-10.6657
▁met	-10.6662
we	-10.6685
▁meet	-10.6687
▁bá	-10.6691
ael	-10.6708
▁respect	-10.6713
▁biolog	-10.6726
▁remarkabl	-10.6727
▁purpose	-10.6728
▁fuel	-10.6729
▁infrastructure	-10.6729
rước	-10.673
▁advantage	-10.6731
▁Paris	-10.6733
▁brother	-10.6734
ẩm	-10.6734
▁Pháp	-10.6734
▁rapid	-10.6735
▁Bank	-10.6737
▁version	-10.6738
▁significant	-10.6738
▁document	-10.6738
▁hurt	-10.6741
▁2000	-10.6742
▁spirit	-10.6757
▁slide	-10.6757
▁speed	-10.676
▁Stree	-10.676
▁cultural	-10.6764
àu	-10.677
▁ga	-10.6773
▁afford	-10.6779
▁president	-10.679
▁cờ	-10.679
▁chặ	-10.6797
▁correct	-10.68
▁press	-10.6814
▁mỏ	-10.6819
▁hương	-10.6829
▁ozo	-10.6839
▁ngang	-10.6842
▁onto	-10.6847
▁degree	-10.6848
▁khiếp	-10.6853
▁desire	-10.6862
▁nhỉ	-10.6866
▁thù	-10.6869
▁Ros	-10.6873
▁Le	-10.6885
▁Tom	-10.6889
▁mát	-10.6889
▁members	-10.6891
▁receive	-10.6901
▁liệ	-10.6905
▁compare	-10.6907
ép	-10.6909
▁Bố	-10.6923
icon	-10.6935
▁đọ	-10.6938
▁Mr	-10.6951
▁Charl	-10.6952
▁hứ	-10.6956
hip	-10.6957
tention	-10.6982
▁lẻ	-10.6983
up	-10.6984
▁foot	-10.6986
ứt	-10.7008
ỏi	-10.7009
▁shot	-10.701
ển	-10.7036
▁primar	-10.7047
some	-10.7052
given	-10.7059
▁Đạ	-10.706
unch	-10.7073
littl	-10.7102
▁Ồ	-10.7104
▁drink	-10.7111
▁destroy	-10.7111
▁constant	-10.7111
▁dramatic	-10.7111
▁egg	-10.7111
▁narrative	-10.7111
▁Washington	-10.7111
▁mountain	-10.7111
▁Western	-10.7112
▁rưỡi	-10.7112
▁window	-10.7114
▁heroin	-10.7123
▁signal	-10.7127
▁familiar	-10.7128
▁16	-10.7129
▁fr	-10.7139
▁With	-10.714
á	-10.714
▁multiple	-10.7142
▁Fey	-10.7145
▁noise	-10.7155
▁More	-10.7165
▁sent	-10.7171
▁letter	-10.7171
▁forget	-10.7176
▁element	-10.7178
oil	-10.7179
rời	-10.7184
▁minds	-10.7196
▁hỏng	-10.7197
▁tàng	-10.7199
▁gõ	-10.7207
ward	-10.7226
▁dừ	-10.7232
ạm	-10.7233
▁Lu	-10.7236
▁apple	-10.7242
▁biể	-10.7274
▁Nê	-10.7275
exa	-10.7277
▁trữ	-10.7278
iệt	-10.729
▁spoke	-10.7298
▁cú	-10.7302
wise	-10.7319
▁tai	-10.735
▁lose	-10.7376
▁serve	-10.7386
▁Hô	-10.7391
▁choose	-10.7402
▁Sh	-10.7437
▁buôn	-10.7476
omas	-10.7489
▁argue	-10.7492
▁Air	-10.7495
▁easie	-10.7497
▁Japan	-10.751
▁Harvard	-10.7511
▁fetus	-10.7511
▁instrument	-10.7511
▁possibilit	-10.7511
▁Galvao	-10.7512
▁robot	-10.7512
▁Council	-10.7512
▁vulnerabilit	-10.7513
▁horse	-10.7513
▁investment	-10.7513
▁treatment	-10.7513
berg	-10.7513
▁implication	-10.7514
▁supposed	-10.7515
▁nga	-10.7515
▁supply	-10.7516
▁terribl	-10.752
▁below	-10.7522
è	-10.7525
▁xưa	-10.7527
▁creat	-10.7527
▁dynamic	-10.7529
▁labor	-10.7536
▁combine	-10.7538
95	-10.7541
▁note	-10.7549
ping	-10.7559
▁contain	-10.7561
▁sứ	-10.7565
▁che	-10.7565
▁Tổ	-10.7566
▁aim	-10.7579
line	-10.7588
▁Take	-10.759
▁Gia	-10.7598
▁stor	-10.7615
▁Israel	-10.7616
▁saving	-10.7617
nder	-10.7621
▁TV	-10.7632
▁election	-10.764
▁J	-10.7647
▁Em	-10.7661
▁initial	-10.7664
▁roll	-10.7677
▁statistic	-10.768
▁guide	-10.7697
▁Bả	-10.7706
▁Sale	-10.7712
▁standard	-10.7725
▁lượ	-10.7725
▁35	-10.7726
ob	-10.7727
ha	-10.773
▁fir	-10.7739
▁logic	-10.7744
▁chim	-10.7755
▁frame	-10.7758
iờ	-10.777
▁universit	-10.7779
▁ti	-10.7779
go	-10.7779
▁code	-10.7793
ói	-10.7798
understanding	-10.7814
▁express	-10.7828
▁inter	-10.7843
uồn	-10.7873
▁Nghĩ	-10.7884
▁Di	-10.7887
▁Bản	-10.7897
▁se	-10.7906
▁inform	-10.7911
▁litera	-10.7921
▁rắn	-10.7926
▁dolphin	-10.7927
▁encounter	-10.7927
▁interface	-10.7927
▁temperature	-10.7928
▁radical	-10.7928
▁electrode	-10.7929
▁careful	-10.793
▁node	-10.7931
▁addiction	-10.7934
▁Ne	-10.7937
▁click	-10.7939
▁300	-10.7939
▁Music	-10.7941
▁demand	-10.7946
▁particle	-10.795
▁xoá	-10.7955
▁trouble	-10.796
v	-10.7964
uyệt	-10.7968
▁etc	-10.7971
▁Any	-10.7971
ạch	-10.7993
▁produc	-10.7996
▁rã	-10.7999
▁NG	-10.8
▁string	-10.8001
▁Kal	-10.8006
▁please	-10.8025
▁nine	-10.8034
others	-10.8043
▁oxi	-10.8054
▁Mo	-10.806
▁laws	-10.8069
▁release	-10.8071
▁Gre	-10.8074
▁thuyền	-10.8075
▁ngầ	-10.8081
▁trộ	-10.8086
ried	-10.8087
▁sil	-10.8102
▁respond	-10.8106
▁farm	-10.8107
▁double	-10.8109
▁Del	-10.812
▁survive	-10.813
▁uốn	-10.8141
▁Jer	-10.8169
▁tiê	-10.8183
▁lad	-10.8197
▁bec	-10.8199
ercul	-10.8215
▁wealth	-10.822
▁wave	-10.8229
▁ship	-10.824
▁urban	-10.8242
▁mental	-10.8249
▁fac	-10.8271
▁II	-10.8298
ụng	-10.8316
side	-10.8346
▁despi	-10.8347
▁contact	-10.8355
▁laugh	-10.8357
▁journey	-10.8362
▁kitchen	-10.8362
▁official	-10.8362
▁tremendous	-10.8362
▁ingredient	-10.8362
▁television	-10.8362
▁superintelligen	-10.8363
hật	-10.8364
▁mouth	-10.8364
ide	-10.8365
▁finger	-10.8367
▁cloud	-10.8369
▁afr	-10.8372
▁sample	-10.8372
▁useful	-10.8375
▁Right	-10.8383
▁belong	-10.8383
▁soul	-10.8383
▁reaction	-10.8386
▁cit	-10.8386
▁Arr	-10.8386
▁+	-10.8394
▁Hol	-10.8396
▁vast	-10.8399
▁sentence	-10.8402
▁popular	-10.8402
▁Holly	-10.8407
áy	-10.8419
▁financial	-10.8424
▁director	-10.8425
▁clip	-10.843
▁load	-10.8432
▁emerg	-10.8438
▁giận	-10.8438
▁apply	-10.8445
▁sky	-10.8452
▁Ye	-10.8454
rên	-10.8482
ence	-10.8486
hập	-10.849
▁Sil	-10.8518
▁influence	-10.8524
▁employee	-10.8525
▁vote	-10.8525
▁tê	-10.8527
▁board	-10.8536
▁Wall	-10.854
ism	-10.8544
▁Nhậ	-10.8552
▁environmental	-10.8564
trao	-10.8567
▁quái	-10.8581
▁tháp	-10.8587
▁dấ	-10.8598
▁wide	-10.862
▁sarcoma	-10.8648
▁partner	-10.865
▁tồ	-10.8671
▁organize	-10.8673
75	-10.8687
▁led	-10.8693
▁door	-10.8695
▁finish	-10.8716
▁traffic	-10.8717
▁lành	-10.8723
▁Ru	-10.8742
ties	-10.8747
▁engine	-10.8758
dom	-10.8773
ial	-10.8779
▁250	-10.8787
00	-10.8794
▁govern	-10.8799
ium	-10.8802
▁strength	-10.8808
ướng	-10.8808
▁town	-10.8809
óm	-10.8815
▁Georg	-10.8816
▁Obama	-10.8816
▁unique	-10.8816
▁husband	-10.8816
▁Chicago	-10.8816
▁neighbor	-10.8816
▁Jordan	-10.8816
▁Richard	-10.8816
▁accident	-10.8816
▁feature	-10.8816
▁Jenn	-10.8817
▁reveal	-10.8817
▁immediate	-10.8817
▁prize	-10.8817
▁failure	-10.8817
▁definition	-10.8818
▁publish	-10.8818
▁motor	-10.8819
▁region	-10.882
▁outcome	-10.8822
▁gluc	-10.8823
▁border	-10.8824
▁mention	-10.8827
▁teenager	-10.8829
▁collection	-10.883
▁extend	-10.8832
▁hu	-10.8833
▁courage	-10.8839
▁Sometime	-10.8842
▁bubble	-10.8843
▁central	-10.8845
vant	-10.8847
▁stress	-10.8847
ley	-10.8848
though	-10.8849
uza	-10.8853
▁continent	-10.8856
▁trustworth	-10.8857
▁tech	-10.8863
▁Miss	-10.8863
▁thác	-10.8869
▁tough	-10.887
▁gender	-10.8879
▁religious	-10.8879
▁enter	-10.8881
▁won	-10.8884
▁none	-10.8884
▁ngã	-10.8885
▁include	-10.8897
▁painting	-10.8899
▁fill	-10.8906
▁radio	-10.8907
▁danger	-10.8908
ling	-10.8911
H	-10.8911
ớn	-10.8923
▁skin	-10.8926
▁Bill	-10.894
▁wound	-10.8944
▁bò	-10.8991
▁violent	-10.9002
▁Chi	-10.9008
▁interview	-10.9016
▁trial	-10.9016
lades	-10.9025
sphere	-10.9031
▁Imagin	-10.9033
▁tw	-10.9043
▁iP	-10.9044
▁position	-10.9051
mail	-10.9055
▁designer	-10.9079
▁đập	-10.908
▁bike	-10.9084
ern	-10.9107
▁separate	-10.9108
▁learne	-10.9118
▁Se	-10.9119
▁ngạ	-10.912
▁era	-10.9123
▁pregnan	-10.9125
▁cản	-10.9139
ere	-10.914
eo	-10.9152
▁Swed	-10.9154
▁comment	-10.9172
▁sustainabl	-10.9181
rought	-10.9193
▁foreign	-10.9198
▁balance	-10.9211
led	-10.9236
▁voi	-10.9242
▁strange	-10.9254
▁scar	-10.9257
▁awe	-10.9269
▁decline	-10.927
▁197	-10.9273
À	-10.9287
▁mirror	-10.9292
▁effort	-10.9292
▁attempt	-10.9292
▁vehicle	-10.9292
▁Beatbox	-10.9292
▁beatbox	-10.9292
▁keyboard	-10.9292
▁fantastic	-10.9292
▁visual	-10.9292
▁classroom	-10.9292
▁explanation	-10.9292
▁disorder	-10.9292
▁switch	-10.9292
▁glass	-10.9292
▁yellow	-10.9293
▁mistake	-10.9293
▁Peter	-10.9295
▁alien	-10.9295
▁instruction	-10.9297
▁instance	-10.9297
▁sensor	-10.9302
▁artificial	-10.9303
uất	-10.9304
▁debate	-10.9305
▁conference	-10.9306
▁according	-10.9308
▁luck	-10.9308
▁responsibilit	-10.9309
▁pin	-10.9311
▁joke	-10.9314
mes	-10.9317
▁creati	-10.9319
▁grand	-10.9319
▁rough	-10.9333
▁cycle	-10.9336
▁weather	-10.9336
F	-10.9344
▁counter	-10.9345
▁đắn	-10.9348
hidi	-10.9362
▁graph	-10.9364
▁yeah	-10.937
▁communicate	-10.9376
▁hẹn	-10.9387
militar	-10.9397
▁Minist	-10.9398
▁anyway	-10.94
▁rác	-10.9408
ped	-10.9411
▁trượ	-10.9442
hone	-10.9451
▁Jew	-10.9458
▁cam	-10.9459
▁kín	-10.946
▁Lau	-10.9468
eating	-10.9469
▁iron	-10.9483
50	-10.9484
hiếp	-10.9498
▁expert	-10.9499
▁park	-10.9509
▁divide	-10.9517
▁mothers	-10.9522
▁responsibl	-10.9534
▁táng	-10.9544
▁heads	-10.9546
▁genes	-10.9548
▁rock	-10.955
▁organ	-10.9552
▁ngọ	-10.9553
ản	-10.9554
nger	-10.957
▁authorit	-10.9573
▁bio	-10.9577
A	-10.9579
▁rare	-10.9592
▁nướ	-10.9606
▁nhã	-10.9649
▁race	-10.965
▁El	-10.9654
▁bu	-10.9656
ir	-10.9658
▁equip	-10.9676
eath	-10.9679
▁par	-10.9694
ro	-10.9721
ement	-10.973
▁dư	-10.9742
▁intent	-10.9747
▁mov	-10.9757
▁ngu	-10.9778
onneg	-10.978
=	-10.9787
▁bo	-10.9789
▁dozen	-10.9791
▁volunteer	-10.9792
▁profound	-10.9792
▁circumstance	-10.9792
▁scene	-10.9793
▁unfortunate	-10.9793
▁brillian	-10.9793
▁crystal	-10.9793
▁2010	-10.9793
▁attitude	-10.9793
▁magazine	-10.9793
▁assumption	-10.9794
▁performance	-10.9795
▁Heather	-10.9795
▁village	-10.9795
▁transparen	-10.9795
▁earth	-10.9797
▁Zeta	-10.9797
▁quiet	-10.98
▁electron	-10.9802
▁collective	-10.9806
▁elect	-10.9808
▁topic	-10.981
▁House	-10.981
▁enable	-10.9811
▁belief	-10.9813
▁apart	-10.984
▁hối	-10.9847
▁đà	-10.9851
▁killer	-10.9855
▁Dad	-10.9866
▁mom	-10.9868
▁xứ	-10.9871
▁reward	-10.9872
▁battle	-10.9879
▁dầ	-10.9883
▁St	-10.9886
▁polici	-10.9898
▁genom	-10.9899
▁nấ	-10.9901
▁Is	-10.9903
▁194	-10.9912
▁productiv	-10.9913
▁Brita	-10.9915
▁root	-10.9917
hống	-10.9917
Like	-10.9921
▁survey	-10.9925
▁watt	-10.9932
▁shut	-10.9938
▁addition	-10.9938
▁Cuố	-10.994
▁bod	-10.9947
ate	-10.9955
▁exercise	-10.996
▁chà	-10.9964
gen	-10.9984
▁rè	-10.9988
▁legal	-10.999
▁Đồ	-10.9996
▁grade	-10.9999
▁becom	-11.0001
▁occur	-11.0002
▁kè	-11.0009
▁visit	-11.0015
▁Chiế	-11.0021
▁sold	-11.0035
▁Ush	-11.0039
▁Kan	-11.004
▁mờ	-11.0067
▁convince	-11.0075
▁hop	-11.0078
▁hack	-11.0088
▁gravit	-11.0112
▁mess	-11.0117
uyền	-11.012
horn	-11.0123
uyển	-11.0125
▁shoe	-11.0127
▁trip	-11.0132
▁Kế	-11.0137
▁corner	-11.0139
▁taste	-11.0142
ure	-11.0144
▁origin	-11.0157
▁detail	-11.0158
▁tụ	-11.0162
▁Mary	-11.0166
▁replace	-11.0168
cient	-11.0172
▁terroris	-11.0189
▁bì	-11.0192
▁cheap	-11.0193
▁associate	-11.0198
▁trôi	-11.0204
▁Ja	-11.0206
▁Phụ	-11.021
▁south	-11.0229
▁hơ	-11.024
ging	-11.0245
▁xá	-11.026
▁arrive	-11.0261
▁invite	-11.0267
istic	-11.0269
▁Lin	-11.0272
▁Z	-11.0273
▁chain	-11.0294
▁Â	-11.0296
ship	-11.0296
#	-11.0313
é	-11.0315
▁Black	-11.0316
▁Micro	-11.0317
▁analog	-11.0317
▁32	-11.0318
▁platform	-11.0318
▁proud	-11.0318
▁German	-11.0318
▁component	-11.0318
▁landscape	-11.0318
▁enjoy	-11.0318
▁restaurant	-11.0318
▁alternative	-11.0318
▁opinion	-11.0318
▁jump	-11.0318
▁branch	-11.0319
▁false	-11.0319
▁illustration	-11.032
▁location	-11.032
▁district	-11.0321
▁summer	-11.0321
▁2007	-11.0322
▁intelligent	-11.0323
▁boundar	-11.0323
▁aspect	-11.0327
▁birch	-11.0329
hành	-11.0336
▁snake	-11.0338
▁interaction	-11.0342
▁gain	-11.0342
▁vỏ	-11.0344
▁catch	-11.0347
▁incentive	-11.0351
▁bar	-11.0355
▁compan	-11.0357
▁analys	-11.0361
▁Mall	-11.0372
▁neuron	-11.0375
▁nhậ	-11.0379
▁construct	-11.0383
orrow	-11.0384
▁charge	-11.0386
▁deb	-11.0388
▁US	-11.0393
mate	-11.0395
▁core	-11.0396
▁coffe	-11.0397
▁expand	-11.0399
▁nhánh	-11.0403
▁remove	-11.0407
▁tặ	-11.0412
rry	-11.0415
ron	-11.0416
soft	-11.0418
▁99	-11.043
▁Ka	-11.0442
▁edge	-11.0452
▁196	-11.0454
alent	-11.0455
▁ổ	-11.0482
▁điể	-11.0482
▁assume	-11.049
▁app	-11.0494
pover	-11.0499
▁clock	-11.05
▁nerve	-11.0507
▁Ah	-11.0514
▁atom	-11.0524
oman	-11.0531
▁setting	-11.0539
by	-11.054
▁cold	-11.0564
▁pack	-11.0565
▁dig	-11.0576
live	-11.0576
▁gun	-11.0592
co	-11.0598
ville	-11.0603
▁gene	-11.0605
▁cure	-11.0606
ely	-11.0615
▁tradition	-11.062
▁obsess	-11.0626
solution	-11.0626
▁mãn	-11.0629
▁miss	-11.0657
▁cong	-11.0675
▁translate	-11.0702
▁basi	-11.0706
▁Basi	-11.0721
▁rele	-11.0725
▁happi	-11.0772
▁khố	-11.0777
▁Po	-11.0779
▁sam	-11.0784
hood	-11.0791
ture	-11.0796
▁secur	-11.0797
▁Ri	-11.0802
▁bia	-11.0805
U	-11.0814
▁remind	-11.0822
▁blog	-11.0843
▁realiz	-11.0845
▁khô	-11.0852
▁repeat	-11.0854
▁industrial	-11.0859
▁xo	-11.0867
▁LGBT	-11.0868
▁MIT	-11.0869
▁1990	-11.0869
▁depth	-11.0869
▁anxiet	-11.0873
▁Second	-11.0873
▁display	-11.0873
▁previous	-11.0873
▁authentic	-11.0873
▁professor	-11.0873
▁capabilit	-11.0873
▁neighborhood	-11.0874
▁commercial	-11.0874
▁principle	-11.0874
▁disaster	-11.0875
▁repair	-11.0875
▁collaboration	-11.0875
▁Jo	-11.0878
▁Chưa	-11.088
▁waste	-11.088
hàng	-11.0883
▁cocain	-11.0885
▁Nick	-11.0889
▁Other	-11.089
▁odd	-11.0894
▁Li	-11.0895
▁weapon	-11.0896
▁Lo	-11.0896
uần	-11.0911
▁sick	-11.0915
▁sport	-11.0916
▁Mĩ	-11.0916
▁Love	-11.0917
▁fourth	-11.092
▁Darwin	-11.0923
▁appropriate	-11.0924
▁hoả	-11.093
▁Điể	-11.0935
▁officer	-11.0937
▁metal	-11.0939
igan	-11.0951
▁station	-11.0952
▁credit	-11.0959
▁khôn	-11.0974
ates	-11.0983
▁capa	-11.0983
▁appreciate	-11.0995
der	-11.1003
▁detect	-11.1004
▁intention	-11.1004
▁tens	-11.1006
▁actor	-11.1006
▁trick	-11.1007
20	-11.1008
▁layer	-11.1022
hai	-11.1034
▁crucial	-11.1045
▁diệ	-11.1056
▁Egypt	-11.1057
joy	-11.1074
▁Xe	-11.1077
equiv	-11.1078
ual	-11.1086
▁heal	-11.1092
▁xó	-11.1104
▁201	-11.1109
▁curve	-11.112
▁stem	-11.1125
▁cap	-11.113
ouri	-11.1134
▁Eri	-11.1137
▁600	-11.1143
▁lõ	-11.1148
als	-11.1156
abilit	-11.1159
▁nurse	-11.1164
▁bond	-11.1168
▁bag	-11.1187
▁glob	-11.1197
ied	-11.1203
▁National	-11.121
▁Un	-11.1212
ư	-11.1237
▁toast	-11.1247
gain	-11.1248
▁beg	-11.1257
▁quầ	-11.1272
▁moral	-11.1277
O	-11.1281
uộn	-11.13
▁cỏ	-11.1309
ford	-11.1314
▁wire	-11.134
▁expens	-11.1343
▁nucle	-11.1344
urious	-11.135
tuck	-11.1364
▁proper	-11.1372
▁generate	-11.1386
▁unt	-11.1391
cal	-11.14
▁vo	-11.1421
▁myth	-11.1421
ưới	-11.1432
▁enforce	-11.1443
▁tràn	-11.1446
▁chemist	-11.1458
▁Paul	-11.1458
▁leav	-11.1459
▁mechanism	-11.1461
▁Wikipedia	-11.1461
▁plastic	-11.1461
▁square	-11.1461
▁symptom	-11.1462
▁transition	-11.1463
▁chronic	-11.1465
▁habit	-11.1469
▁ear	-11.1469
▁Steve	-11.1469
▁efficienc	-11.1475
▁executive	-11.1476
▁1000	-11.1477
▁plate	-11.148
ile	-11.148
▁Mã	-11.1483
▁Số	-11.149
▁că	-11.1514
B	-11.1517
▁Latin	-11.152
▁Sum	-11.1525
ond	-11.1535
▁meat	-11.1537
▁Port	-11.1542
▁bird	-11.155
▁seek	-11.1555
creation	-11.1575
lease	-11.1581
▁lower	-11.1581
▁Tấ	-11.159
rsh	-11.1592
productive	-11.1596
▁mid	-11.1603
▁spell	-11.1606
▁đuối	-11.1606
▁moon	-11.1607
ant	-11.1608
ick	-11.163
▁underst	-11.1646
holder	-11.1656
▁math	-11.1663
▁đợ	-11.1667
▁pe	-11.1671
▁truck	-11.168
▁Fre	-11.1684
dden	-11.1684
▁wa	-11.1684
▁pure	-11.1694
▁driver	-11.1711
▁weight	-11.1711
▁thôn	-11.1726
▁decid	-11.1728
▁thổi	-11.1728
▁khoan	-11.1732
▁33	-11.175
▁phạ	-11.1753
▁biế	-11.176
▁refuse	-11.1766
▁paint	-11.1785
▁Tor	-11.1786
egan	-11.1811
Tu	-11.1812
▁adapt	-11.1819
hỏng	-11.1825
▁provid	-11.183
umba	-11.1848
▁depress	-11.1853
▁agent	-11.1863
▁ei	-11.1873
▁May	-11.1878
huế	-11.1892
▁que	-11.1897
▁Cơ	-11.1903
oli	-11.1921
ndura	-11.1922
▁nhấ	-11.1928
▁thă	-11.193
▁crowd	-11.1933
▁warm	-11.1942
▁Da	-11.196
ứ	-11.1961
uỗ	-11.1983
▁hate	-11.1992
range	-11.1995
▁Eff	-11.1995
▁khuy	-11.2011
▁vò	-11.2013
▁Tee	-11.2014
▁prepar	-11.2019
ze	-11.202
well	-11.203
ạ	-11.2035
▁ngâ	-11.2039
rising	-11.2042
▁His	-11.2052
▁beat	-11.2061
▁Les	-11.2062
▁bottle	-11.2066
▁burn	-11.2069
▁va	-11.2072
▁trend	-11.208
▁nor	-11.2082
▁REM	-11.2082
▁campaign	-11.2082
▁cognitive	-11.2082
▁fashion	-11.2082
▁transplant	-11.2082
▁federal	-11.2082
▁Greenville	-11.2082
▁Jeff	-11.2082
▁wheelchair	-11.2082
▁suspect	-11.2082
▁budget	-11.2082
▁partnership	-11.2082
▁rescue	-11.2082
▁Balti	-11.2082
▁compound	-11.2082
▁Univers	-11.2083
▁arrest	-11.2083
▁sandwich	-11.2083
▁severe	-11.2083
▁launch	-11.2084
▁distance	-11.2085
▁confront	-11.2085
▁2011	-11.2085
▁pitch	-11.2086
▁intellectual	-11.2086
▁imagination	-11.2086
lux	-11.2088
▁barrier	-11.2091
▁museum	-11.2095
▁percentage	-11.2096
▁ancestor	-11.2097
▁Roman	-11.2103
▁murder	-11.2103
▁article	-11.2105
▁laser	-11.2107
▁determin	-11.2108
▁button	-11.2109
▁identify	-11.2112
▁President	-11.2113
▁Khoa	-11.2114
▁script	-11.2123
ature	-11.2126
ars	-11.2126
▁committe	-11.2127
▁mechanical	-11.2128
lock	-11.2131
▁blame	-11.2132
▁invention	-11.2135
▁Last	-11.2142
▁fascinati	-11.2143
▁biological	-11.2144
ana	-11.2148
▁giant	-11.2156
▁file	-11.2157
▁thọ	-11.2159
▁height	-11.216
▁quyế	-11.2162
▁church	-11.2169
▁analyz	-11.2171
▁court	-11.218
▁passion	-11.2181
▁explore	-11.2185
▁cry	-11.219
▁scal	-11.2203
▁loop	-11.2203
▁đoạ	-11.2209
▁mole	-11.2209
de	-11.2218
▁mỉ	-11.2223
▁ác	-11.2228
possibl	-11.2229
▁trace	-11.223
▁obes	-11.2243
▁Đặ	-11.2245
▁beaut	-11.2249
▁tuy	-11.2253
marin	-11.2254
▁bread	-11.2256
▁weak	-11.2257
▁tướng	-11.226
ka	-11.2274
▁bom	-11.2274
▁details	-11.2278
▁consum	-11.2286
▁ok	-11.2289
imba	-11.229
▁norm	-11.2296
za	-11.2304
▁&	-11.231
▁De	-11.2315
▁bờ	-11.2317
▁blind	-11.232
▁Gu	-11.2323
▁foundation	-11.233
▁mol	-11.2338
▁Los	-11.2355
▁invisibl	-11.2371
▁lung	-11.2383
▁photo	-11.2384
▁bridge	-11.2391
▁sâ	-11.2397
▁vari	-11.2435
▁gre	-11.2448
▁exception	-11.2458
▁Nigerian	-11.2468
▁j	-11.2474
▁joint	-11.2483
▁profit	-11.2542
arian	-11.2562
▁27	-11.2567
▁Sun	-11.257
ẹp	-11.2572
▁Electro	-11.2599
▁vâ	-11.2603
▁Sama	-11.2608
▁conduct	-11.261
▁operate	-11.2612
▁surround	-11.2615
▁cheer	-11.2626
wards	-11.2632
ecurit	-11.2642
▁involv	-11.2642
▁comfortabl	-11.2648
▁mal	-11.2651
▁greate	-11.2672
▁lay	-11.2674
▁chồ	-11.2676
▁Cli	-11.2682
▁pop	-11.2715
▁mis	-11.2717
chool	-11.272
▁Michoac	-11.2724
igger	-11.2732
▁Park	-11.2734
▁row	-11.274
▁victim	-11.2748
▁regret	-11.2749
▁frank	-11.2749
▁honor	-11.275
▁revenue	-11.275
▁observation	-11.275
▁improvement	-11.2751
▁automatic	-11.2752
▁adopt	-11.2752
▁heavy	-11.2753
▁pretend	-11.2754
kind	-11.2754
▁detector	-11.2756
▁Mark	-11.2759
▁trigger	-11.2762
▁expression	-11.2766
▁85	-11.2766
ington	-11.2767
▁filter	-11.2769
▁liter	-11.2773
▁European	-11.2774
▁argument	-11.2779
▁bê	-11.278
▁vibration	-11.2783
▁phrase	-11.2791
▁0.	-11.2796
▁mạc	-11.2801
▁precise	-11.2803
▁applie	-11.2804
▁claim	-11.2805
▁wors	-11.2809
▁march	-11.2809
▁fin	-11.281
▁error	-11.2817
com	-11.2818
▁magic	-11.2824
▁reflect	-11.2824
▁Talk	-11.2826
▁Fri	-11.2833
tham	-11.284
▁instant	-11.2846
▁defend	-11.2889
▁banh	-11.2899
▁Co	-11.29
▁SM	-11.2903
▁feed	-11.2904
▁mayor	-11.2913
▁xạ	-11.2916
▁Phá	-11.2916
▁ju	-11.2917
light	-11.2929
▁sung	-11.2933
▁tần	-11.2934
▁quậ	-11.2939
▁yoursel	-11.2939
▁đai	-11.2954
▁backward	-11.2954
▁confiden	-11.2956
▁Cậ	-11.2961
▁sacrifice	-11.298
▁fo	-11.2988
▁Jul	-11.2993
ghế	-11.2995
▁struggl	-11.2999
▁partners	-11.3001
▁le	-11.3011
ghter	-11.3033
ons	-11.3039
ier	-11.3039
▁clinical	-11.3041
▁compose	-11.3047
izz	-11.3073
▁celebrate	-11.3076
▁realit	-11.3079
▁date	-11.3079
▁chart	-11.3083
▁điệ	-11.3094
▁lé	-11.3106
▁hole	-11.3113
traged	-11.3118
▁engag	-11.3127
▁Sch	-11.3128
▁cou	-11.3131
▁definit	-11.3133
hana	-11.3138
▁đê	-11.3143
▁brave	-11.3145
▁mark	-11.3156
▁guid	-11.3169
arrow	-11.3175
▁chai	-11.318
.3	-11.3191
ộn	-11.3203
▁infect	-11.3204
ẫy	-11.3208
orry	-11.321
▁prevent	-11.3215
▁Swa	-11.3216
600	-11.322
▁sốt	-11.3221
▁hypothesi	-11.3223
▁optic	-11.3234
▁ki	-11.3246
▁Na	-11.3247
ke	-11.3247
▁Me	-11.325
▁tip	-11.3261
▁bug	-11.3269
▁rung	-11.3279
▁plot	-11.3296
ab	-11.33
sts	-11.3307
▁leg	-11.3309
▁Cam	-11.331
▁borrow	-11.3325
▁lỏ	-11.334
atic	-11.3345
od	-11.3347
▁grant	-11.3351
▁embrace	-11.3352
▁cross	-11.3355
▁Ro	-11.3362
▁teen	-11.3374
lies	-11.3387
iếp	-11.3388
ocal	-11.339
▁Khoản	-11.3392
▁Sal	-11.3399
▁gather	-11.3418
▁prison	-11.3421
▁bớ	-11.3425
▁shock	-11.3426
▁ham	-11.3431
▁fat	-11.3431
▁trù	-11.3432
iz	-11.3441
huyền	-11.345
▁Ethiopia	-11.3463
precedent	-11.3463
▁Avogadro	-11.3463
▁hormone	-11.3463
▁protocol	-11.3463
▁interpret	-11.3463
▁succeed	-11.3463
▁lifestyle	-11.3463
▁method	-11.3463
▁newspaper	-11.3463
▁Fiji	-11.3463
▁uncertain	-11.3463
▁abstract	-11.3464
▁Number	-11.3464
▁Stan	-11.3464
▁blank	-11.3464
▁recognition	-11.3464
▁academic	-11.3464
▁1950	-11.3464
▁illness	-11.3464
▁combination	-11.3464
▁demographic	-11.3465
▁childhood	-11.3465
ku	-11.3466
▁creature	-11.3466
▁faith	-11.3466
▁electronic	-11.3466
▁protest	-11.3466
▁outlier	-11.3467
▁judgment	-11.3467
▁comput	-11.3469
▁equation	-11.347
▁discussion	-11.347
▁client	-11.3471
▁admit	-11.3473
▁AB	-11.3477
▁frequenc	-11.3478
▁physic	-11.3479
ò	-11.3479
jad	-11.348
▁economist	-11.3482
▁measur	-11.3483
▁lifetime	-11.3484
▁Sier	-11.3485
▁partition	-11.3492
▁Jane	-11.3492
▁fragil	-11.3495
▁tweet	-11.3496
▁ancest	-11.3496
▁accurate	-11.3497
▁studio	-11.3499
▁distribute	-11.3501
▁blow	-11.3503
are	-11.3516
▁react	-11.3517
gos	-11.3522
▁indicate	-11.3528
▁customer	-11.3531
▁pulse	-11.3532
▁boom	-11.3537
▁destructi	-11.3538
▁Luc	-11.3539
lace	-11.354
▁Pla	-11.354
▁perceive	-11.3544
▁independent	-11.3546
▁awful	-11.3551
▁Quá	-11.3558
▁1.2	-11.3558
▁spic	-11.3559
▁grass	-11.3565
▁gesture	-11.3566
▁Dương	-11.3566
iddle	-11.3569
▁Rik	-11.358
▁diplomat	-11.3583
▁marker	-11.3585
12	-11.3591
▁curl	-11.3594
▁soil	-11.36
▁65	-11.3602
ợp	-11.3607
▁chimp	-11.3607
▁Kin	-11.3614
▁mix	-11.3618
▁36	-11.362
ural	-11.3623
▁ridicul	-11.3625
▁bỉ	-11.3629
▁MRI	-11.3631
▁motion	-11.3636
▁chợ	-11.364
huỷ	-11.3649
night	-11.3656
▁exploit	-11.3656
rely	-11.3657
▁thermo	-11.3666
▁evolution	-11.3666
▁mad	-11.3698
▁statu	-11.3705
print	-11.371
▁lẫ	-11.371
▁insight	-11.3729
orn	-11.3744
▁throw	-11.3758
nts	-11.3772
▁technical	-11.3776
▁mapp	-11.3785
ri	-11.3786
aps	-11.379
▁Financ	-11.3794
▁Child	-11.3801
▁Jos	-11.3807
ist	-11.383
corporate	-11.3836
rấ	-11.3844
▁pl	-11.385
▁pace	-11.3851
magine	-11.3853
▁knock	-11.3858
ằn	-11.3877
▁equi	-11.3884
▁judge	-11.3885
ency	-11.3891
▁plane	-11.3895
▁funn	-11.3898
hí	-11.39
▁estimate	-11.3911
▁forgive	-11.3912
uriosit	-11.3914
tra	-11.3915
▁ngử	-11.3916
▁philosoph	-11.392
30	-11.3923
▁meter	-11.393
▁pollut	-11.393
▁shall	-11.3932
▁Wa	-11.3939
▁Cala	-11.3941
mber	-11.3941
▁shar	-11.3943
▁promise	-11.3976
gaga	-11.3981
▁cor	-11.3986
▁worrie	-11.399
ious	-11.399
of	-11.3996
ected	-11.4003
ethan	-11.4006
dditional	-11.4013
▁Mon	-11.4014
.7	-11.4018
ox	-11.4021
ố	-11.4028
▁Jam	-11.4037
▁introduce	-11.4048
▁nô	-11.4049
die	-11.4051
▁theater	-11.4053
▁Per	-11.4059
▁Bru	-11.4068
▁meta	-11.4074
va	-11.4083
▁challeng	-11.4092
▁Will	-11.4102
▁chằ	-11.4104
hầ	-11.4104
col	-11.412
rocc	-11.4153
▁participate	-11.4169
▁distributi	-11.4169
▁700	-11.4171
▁sọ	-11.4194
▁establish	-11.4205
▁unexp	-11.422
▁smile	-11.4221
▁ideal	-11.4224
ns	-11.4224
▁symbol	-11.423
▁PRISM	-11.4232
▁carcinogen	-11.4232
▁elephant	-11.4232
▁pedestrian	-11.4232
▁pyramid	-11.4232
▁Project	-11.4232
▁paradigm	-11.4232
▁threshold	-11.4232
DAR	-11.4232
▁grandfather	-11.4232
▁Carolin	-11.4232
▁encrypt	-11.4232
▁microphone	-11.4232
▁pepper	-11.4232
▁deserve	-11.4232
▁entertain	-11.4232
▁muscle	-11.4232
▁transaction	-11.4232
▁application	-11.4232
▁civilization	-11.4233
▁veteran	-11.4233
jazz	-11.4233
▁texture	-11.4233
▁probabilit	-11.4233
▁fellow	-11.4234
▁rude	-11.4235
▁1900	-11.4235
▁historical	-11.4236
▁Since	-11.4236
▁innovative	-11.4237
▁trillion	-11.4237
▁Center	-11.4238
▁motivation	-11.4238
▁channel	-11.4238
▁perception	-11.4238
▁Human	-11.4238
▁Down	-11.4238
▁statement	-11.424
▁boost	-11.4241
▁illeg	-11.4241
▁xộn	-11.4246
▁reduction	-11.4246
▁Food	-11.4247
▁thỉ	-11.4251
▁convict	-11.4252
nesia	-11.4253
▁Arabia	-11.4254
▁wider	-11.4255
▁Time	-11.426
▁lunch	-11.426
▁Whi	-11.4263
▁arou	-11.4264
▁thrive	-11.4264
▁vu	-11.4265
▁nano	-11.4266
▁2015	-11.4268
▁gift	-11.4269
▁settle	-11.427
▁forgot	-11.4272
▁repeated	-11.4277
▁bump	-11.4277
.6	-11.4279
▁stack	-11.428
eral	-11.4282
▁LI	-11.4289
na	-11.4291
▁Scott	-11.4295
▁architectur	-11.4297
▁winner	-11.4303
▁Cư	-11.4306
ded	-11.4311
▁Ig	-11.4313
▁dress	-11.4313
▁imagin	-11.4317
▁1,000	-11.4319
▁phenomen	-11.4321
▁Glas	-11.4324
▁passe	-11.4326
civil	-11.4328
▁camp	-11.4343
ulous	-11.4347
▁tạ	-11.4349
▁Har	-11.4362
▁exchange	-11.4362
▁rid	-11.4366
▁talent	-11.4369
86	-11.4372
▁circle	-11.4381
▁Shar	-11.4383
▁verbal	-11.4384
▁mứ	-11.4387
▁Nob	-11.439
▁sàn	-11.4399
▁gr	-11.44
▁carrie	-11.44
▁vờ	-11.4403
▁trán	-11.4411
▁wrestl	-11.442
hile	-11.4423
▁pa	-11.4428
▁plu	-11.443
ghê	-11.4434
▁Ra	-11.4441
▁quarter	-11.4443
data	-11.4446
▁rape	-11.4449
▁connectiv	-11.4476
ear	-11.4477
▁flower	-11.448
bo	-11.4489
▁bơ	-11.4494
▁earn	-11.4502
11	-11.4507
tten	-11.4514
▁Sea	-11.452
▁silen	-11.4524
profit	-11.4533
▁nhãn	-11.4548
▁reject	-11.4562
▁Goo	-11.4565
▁ice	-11.457
/	-11.457
▁mạn	-11.4585
▁fam	-11.4591
▁reliabl	-11.4606
ura	-11.4609
di	-11.4635
▁surviv	-11.4638
trade	-11.4662
her	-11.4669
▁lin	-11.4679
▁hall	-11.4696
▁expose	-11.4698
▁Bay	-11.4702
ị	-11.4703
fus	-11.4705
▁cheat	-11.4711
▁Ki	-11.4719
▁Rus	-11.4724
ord	-11.4728
▁explor	-11.4733
stream	-11.4734
uga	-11.4737
▁dog	-11.476
▁pen	-11.4766
▁truths	-11.4767
▁Oxf	-11.4768
▁ten	-11.4787
▁gọ	-11.4787
▁lù	-11.4794
▁ngừ	-11.4806
▁đấ	-11.485
▁Van	-11.4861
▁poll	-11.4878
▁Ya	-11.4881
tember	-11.4888
oan	-11.4892
▁Independen	-11.4892
ends	-11.4893
lash	-11.4898
▁graduate	-11.4923
lah	-11.4927
▁clothe	-11.493
▁Edw	-11.4931
▁ấ	-11.4936
▁stoppe	-11.4937
▁Ngh	-11.4945
▁practical	-11.4958
▁28	-11.4959
ost	-11.4966
ườn	-11.4971
▁numb	-11.4972
▁seed	-11.4979
13	-11.498
▁Sep	-11.4988
▁Global	-11.4996
▁Đô	-11.4998
▁rob	-11.5003
▁thắn	-11.5011
justice	-11.5022
▁Pr	-11.5026
right	-11.5029
oney	-11.5031
▁hò	-11.5033
here	-11.5043
▁stopp	-11.5045
▁800	-11.5053
▁disagree	-11.5064
▁HIV	-11.5065
▁Kentucky	-11.5065
▁Singapore	-11.5065
▁Trinida	-11.5065
▁ambulance	-11.5065
▁chimpanzee	-11.5065
▁guarantee	-11.5065
▁procedure	-11.5065
▁technique	-11.5065
♪	-11.5065
▁broadcast	-11.5065
▁forecast	-11.5065
▁pocket	-11.5065
▁Geoff	-11.5065
▁Eurys	-11.5065
▁welcome	-11.5065
▁commodit	-11.5065
▁Jonah	-11.5065
▁Science	-11.5065
▁implant	-11.5065
▁collapse	-11.5066
▁feedback	-11.5066
▁secular	-11.5066
▁inflation	-11.5066
▁trivial	-11.5066
▁fluid	-11.5066
▁Church	-11.5066
▁remote	-11.5066
▁register	-11.5066
▁Gandhi	-11.5067
▁resolve	-11.5067
▁GPS	-11.5067
▁LOL	-11.5067
▁Klein	-11.5067
▁liqui	-11.5067
▁retail	-11.5067
▁revelation	-11.5067
▁immigrant	-11.5068
▁Louis	-11.5069
SA	-11.5069
▁drove	-11.5069
▁Nash	-11.507
▁shop	-11.5071
▁weird	-11.5071
▁unlike	-11.5071
▁workplace	-11.5072
▁đói	-11.5073
▁inject	-11.5073
▁fault	-11.5074
▁sensation	-11.5086
▁taboo	-11.5086
▁consistent	-11.5086
▁Prote	-11.5091
▁split	-11.5094
▁employ	-11.5095
▁Athen	-11.51
▁fulfill	-11.5101
▁nặn	-11.5102
▁dividend	-11.5105
▁spectr	-11.5106
▁Baby	-11.5109
▁output	-11.5111
▁atmo	-11.5112
▁nạ	-11.5112
▁mồ	-11.512
▁clue	-11.5126
NE	-11.5127
▁Mik	-11.5133
▁activist	-11.5144
▁stu	-11.5146
▁NA	-11.5147
▁witness	-11.5148
iplomat	-11.5149
▁doors	-11.5156
curricul	-11.5159
▁Sina	-11.5159
▁former	-11.5161
▁wis	-11.5162
ell	-11.5164
▁brutal	-11.5169
▁gradua	-11.5177
▁Ban	-11.5185
55	-11.5189
▁inner	-11.5191
▁copy	-11.5194
▁quest	-11.5197
▁Ron	-11.52
▁stone	-11.5215
▁khiê	-11.5215
▁Moon	-11.5218
▁khoán	-11.5221
▁bon	-11.5224
hiệp	-11.5227
▁Fin	-11.5228
per	-11.523
▁continu	-11.5232
▁slice	-11.5232
▁MA	-11.5233
▁anesthesi	-11.5235
usal	-11.5237
sed	-11.524
▁Wom	-11.5246
▁encourage	-11.5252
ulu	-11.5259
▁stable	-11.5259
ody	-11.5277
no	-11.5278
01	-11.5284
▁seat	-11.529
sburg	-11.5298
huyện	-11.5298
power	-11.5308
▁ché	-11.5309
▁climb	-11.5311
▁dai	-11.5314
ding	-11.5314
▁tower	-11.5327
ebra	-11.533
▁chains	-11.5331
ạnh	-11.5333
▁notic	-11.5337
▁Arm	-11.5344
▁mổ	-11.5345
hùng	-11.535
ọ	-11.535
▁faci	-11.5353
▁hiến	-11.5354
▁Wind	-11.5363
position	-11.5366
▁pregnanc	-11.537
▁ướ	-11.5375
▁ver	-11.5381
ight	-11.5386
▁mode	-11.5408
teria	-11.5414
▁hero	-11.5415
▁longe	-11.542
▁active	-11.5421
ră	-11.5424
ball	-11.5426
evil	-11.5431
▁fa	-11.5435
▁Alis	-11.544
▁calculate	-11.5451
▁Abo	-11.5452
▁revolutionar	-11.5475
▁giế	-11.548
▁ngẩn	-11.5486
▁khé	-11.55
ears	-11.5504
▁inspire	-11.5513
ev	-11.5521
▁lâ	-11.5529
▁stretch	-11.5535
zar	-11.5542
▁Pa	-11.5543
▁Cla	-11.5561
▁bú	-11.5566
con	-11.5566
▁vé	-11.5573
▁nurs	-11.5584
fish	-11.5618
our	-11.5621
▁universal	-11.5621
ather	-11.5633
mission	-11.564
time	-11.5646
▁illustrate	-11.5648
▁Ada	-11.565
▁Rob	-11.565
97	-11.5669
▁Ea	-11.5669
▁mấ	-11.5671
▁caus	-11.5672
tan	-11.5677
tha	-11.568
ma	-11.5694
yo	-11.5695
coming	-11.5707
▁Pri	-11.5716
fide	-11.5719
ỏ	-11.5739
▁ngộ	-11.5744
▁prototype	-11.5746
hà	-11.5752
▁Nha	-11.5763
back	-11.5766
▁Hơ	-11.577
▁quote	-11.5777
rious	-11.5782
▁bear	-11.5783
antic	-11.5798
▁valu	-11.5798
▁bed	-11.5798
▁thấ	-11.5799
▁famili	-11.5829
▁ngo	-11.5848
rench	-11.5851
▁tune	-11.5855
▁Bar	-11.5863
▁Trí	-11.5863
▁capita	-11.5867
net	-11.5872
▁Albert	-11.5875
▁Russia	-11.5889
les	-11.5898
▁thick	-11.5908
▁drum	-11.5912
▁Hat	-11.5928
pid	-11.5937
▁120	-11.5947
▁bắc	-11.595
▁hé	-11.5951
▁domestic	-11.5963
▁micro	-11.597
▁fan	-11.597
▁ne	-11.5972
bvious	-11.5974
▁embarrass	-11.5974
▁Palestinian	-11.5974
▁PalmPilot	-11.5974
▁calendar	-11.5974
▁column	-11.5974
▁concrete	-11.5974
▁obstacle	-11.5974
▁scenario	-11.5974
▁spontaneous	-11.5974
▁Ú	-11.5974
▁implement	-11.5974
▁explosion	-11.5974
▁sermon	-11.5975
▁pollutant	-11.5975
▁Girl	-11.5975
▁database	-11.5975
▁conclusion	-11.5975
▁librar	-11.5975
▁downtown	-11.5975
▁empower	-11.5976
▁complain	-11.5976
▁Republican	-11.5976
▁theoretical	-11.5976
▁vessel	-11.5976
▁coconut	-11.5976
▁collaborative	-11.5977
▁passage	-11.5977
▁Angel	-11.5977
▁exploration	-11.5978
▁ge	-11.5978
▁contrast	-11.5978
▁delay	-11.5978
▁minister	-11.5978
▁III	-11.5979
▁psychologist	-11.5979
▁desk	-11.5979
▁sarcas	-11.5979
▁DO	-11.598
▁harmon	-11.5981
▁Fift	-11.5981
▁Master	-11.5981
▁department	-11.5982
▁bonus	-11.5982
▁Red	-11.5983
▁Brown	-11.5984
▁Life	-11.5984
▁tailor	-11.5984
▁storytell	-11.5985
▁hal	-11.5986
▁initiative	-11.5986
cious	-11.5987
▁neck	-11.599
▁legitimate	-11.5992
▁Cong	-11.5996
▁desperate	-11.5998
▁steam	-11.5998
hận	-11.6
▁legac	-11.6
my	-11.6001
▁align	-11.6004
See	-11.6007
▁myster	-11.6007
▁Green	-11.6008
▁ar	-11.6009
▁regular	-11.601
▁fell	-11.6011
▁representation	-11.6011
affle	-11.6013
▁flood	-11.6015
▁xíu	-11.6018
▁asthma	-11.6019
▁internal	-11.602
▁grain	-11.6021
▁infection	-11.6026
▁grit	-11.6036
▁undern	-11.6047
▁Atlant	-11.6048
▁programmer	-11.6049
▁analytic	-11.6058
ón	-11.6059
▁frequent	-11.6066
ink	-11.607
▁burning	-11.6077
▁philosopher	-11.608
▁sướng	-11.6081
▁narrow	-11.6089
▁youth	-11.6091
▁batter	-11.6096
▁phiê	-11.6096
▁bright	-11.6099
▁beer	-11.6101
▁cooperati	-11.6104
▁Ste	-11.6108
▁Indo	-11.6108
▁synthe	-11.611
▁evolve	-11.6113
▁propert	-11.6123
▁Force	-11.6124
▁Dur	-11.6124
▁warp	-11.6128
▁peak	-11.6137
▁Tin	-11.6141
ple	-11.6142
▁satisfact	-11.6146
▁ngẫm	-11.6151
▁intend	-11.6153
sensitive	-11.6161
▁route	-11.6165
owde	-11.6171
ston	-11.6183
▁leverage	-11.6189
▁poet	-11.6192
gắn	-11.6192
▁grown	-11.6197
ations	-11.62
▁emerge	-11.6204
▁st	-11.6216
kh	-11.6219
▁hell	-11.6223
arliament	-11.6225
▁cook	-11.6226
▁peer	-11.623
ph	-11.6234
uck	-11.6238
▁faste	-11.6241
▁gold	-11.6248
▁abuse	-11.6249
▁prefer	-11.626
ạc	-11.6262
▁importan	-11.6277
▁Sá	-11.6287
▁suck	-11.6297
▁north	-11.6303
▁promote	-11.6304
▁Gold	-11.6305
▁missi	-11.6319
hiện	-11.6335
rũ	-11.6337
▁leak	-11.6343
▁angle	-11.6347
do	-11.6362
ugh	-11.6363
▁chest	-11.6366
▁wor	-11.6373
▁Toà	-11.6376
▁handle	-11.6383
art	-11.6395
▁overcom	-11.6395
therap	-11.64
▁Clar	-11.6402
▁thám	-11.6403
speci	-11.6404
▁chù	-11.6407
tex	-11.641
ned	-11.641
ừ	-11.6416
▁Q	-11.6418
nton	-11.6425
▁decrease	-11.6425
▁Si	-11.6427
▁visibl	-11.6431
▁inspir	-11.644
▁Hồ	-11.6446
▁thuậ	-11.6456
▁equit	-11.6459
▁attract	-11.646
hol	-11.647
▁ignore	-11.6475
usual	-11.6483
▁siê	-11.6493
wide	-11.6495
etwee	-11.65
erior	-11.6506
▁pha	-11.6507
loa	-11.6518
lever	-11.6525
▁bill	-11.6535
▁advis	-11.6539
cent	-11.6542
▁opera	-11.6555
Bay	-11.656
▁anti	-11.6562
▁Ala	-11.6568
hari	-11.6575
▁twi	-11.659
▁clinic	-11.6592
▁occurr	-11.6602
▁sô	-11.6607
▁refine	-11.6629
▁bra	-11.6645
▁Out	-11.6646
tin	-11.6647
▁Franc	-11.6649
▁tolera	-11.665
▁member	-11.6656
ak	-11.667
▁demonstrate	-11.6672
alley	-11.6679
▁flexibl	-11.668
▁god	-11.6684
▁Dru	-11.6688
▁Hom	-11.6704
utism	-11.6711
▁Bồ	-11.6719
▁mo	-11.6724
▁Nghiê	-11.6729
▁plann	-11.6742
▁đỗ	-11.6752
▁technologi	-11.6772
ays	-11.6774
▁bọt	-11.679
▁Thanks	-11.6793
▁cow	-11.6794
▁discuss	-11.6796
▁donati	-11.6798
▁Hoàn	-11.6808
▁Star	-11.6821
over	-11.6823
▁diploma	-11.6823
▁hạng	-11.6835
▁integrate	-11.6835
▁trauma	-11.6841
section	-11.6849
▁xă	-11.6862
ho	-11.6877
oca	-11.6898
▁identifie	-11.6925
▁Cha	-11.6927
ealth	-11.6929
▁vươn	-11.6929
▁relat	-11.6931
▁participa	-11.6947
▁raw	-11.6955
udience	-11.6961
▁accelerate	-11.6963
▁recommend	-11.6965
▁lift	-11.6965
▁Part	-11.6968
▁horri	-11.697
▁horizon	-11.6972
▁Australia	-11.6974
▁ISIL	-11.6974
▁PTSD	-11.6974
▁absorb	-11.6974
▁disappoint	-11.6974
▁hierarch	-11.6974
▁recruit	-11.6974
▁AIDS	-11.6974
▁awkward	-11.6974
▁ceremon	-11.6974
▁dialogue	-11.6974
▁Virgin	-11.6974
▁airplane	-11.6974
▁harvest	-11.6974
▁cartoon	-11.6974
▁Petersburg	-11.6975
▁household	-11.6975
▁Robert	-11.6975
bimetal	-11.6975
▁Portug	-11.6975
▁substance	-11.6975
▁breakthrough	-11.6975
▁vertical	-11.6975
▁Mexican	-11.6975
▁predator	-11.6975
▁laborator	-11.6975
▁LED	-11.6975
▁passionate	-11.6975
▁cellphone	-11.6975
▁panel	-11.6975
▁1980	-11.6976
▁tumor	-11.6976
▁JC	-11.6976
▁visualization	-11.6976
▁Feder	-11.6977
▁Jack	-11.6977
▁appli	-11.6977
▁Brazilian	-11.6977
▁simultaneous	-11.6977
▁Deaf	-11.6977
▁anxious	-11.6977
▁flash	-11.6977
▁musician	-11.6978
PS	-11.6978
▁parliament	-11.6978
▁vivid	-11.6978
▁alarm	-11.6978
arriage	-11.6978
▁season	-11.6979
▁virtual	-11.698
▁gũi	-11.698
▁dial	-11.698
▁epidemic	-11.698
▁thrill	-11.6982
▁negotiation	-11.6984
▁crash	-11.6985
▁prepare	-11.6987
▁solid	-11.6988
▁domain	-11.6988
▁sneakerhead	-11.6989
▁gross	-11.6989
▁overwhelming	-11.6989
▁shooting	-11.699
▁interactive	-11.6991
▁paraly	-11.6993
▁inspiration	-11.6996
▁mart	-11.6996
▁Khả	-11.6998
▁intense	-11.7
▁clap	-11.7004
▁ritual	-11.7006
ordinar	-11.7007
▁useless	-11.7011
aving	-11.7011
▁Wo	-11.702
▁William	-11.7024
ards	-11.7025
▁hub	-11.7026
▁Rập	-11.703
▁slave	-11.7031
▁Pia	-11.7031
93	-11.7031
▁sync	-11.7037
▁weaken	-11.7046
▁rating	-11.7054
▁modem	-11.7062
comfortabl	-11.7063
▁Sky	-11.7063
▁riot	-11.7066
▁prepared	-11.7067
ga	-11.7068
▁Aust	-11.7068
▁sequence	-11.7071
▁Never	-11.708
▁swee	-11.7081
▁discipline	-11.7081
▁confident	-11.7083
iege	-11.7083
▁Play	-11.7089
▁solv	-11.709
▁smil	-11.7096
▁creator	-11.7096
▁hacker	-11.7097
▁readi	-11.7101
▁injur	-11.7102
▁Bra	-11.7105
▁Chị	-11.7107
▁Fi	-11.7109
▁inventor	-11.7119
▁nitro	-11.712
▁47	-11.7127
▁server	-11.7129
entral	-11.7131
▁tho	-11.7137
▁Sir	-11.7148
▁Quy	-11.7149
▁sp	-11.7152
▁Jan	-11.7153
lots	-11.7155
▁Doro	-11.7157
▁45	-11.7159
▁Gall	-11.717
▁boss	-11.7172
▁harm	-11.7175
ượn	-11.7178
▁foreigner	-11.7183
▁Johns	-11.7186
▁boat	-11.7203
rance	-11.7203
▁Mur	-11.7206
▁cent	-11.7211
▁reform	-11.7214
▁hàn	-11.7223
▁wi	-11.7226
▁Power	-11.7233
uspicious	-11.7234
▁squi	-11.7235
▁soạn	-11.7235
▁marri	-11.7241
▁vượng	-11.7242
then	-11.7251
▁thin	-11.7253
▁coal	-11.7257
▁sh	-11.7257
▁rely	-11.7261
▁mega	-11.7263
▁invit	-11.7276
▁psycholog	-11.7281
▁Lis	-11.7286
▁contract	-11.7304
▁dan	-11.7304
▁Eve	-11.7313
▁introduc	-11.7314
▁loose	-11.7321
▁Mont	-11.7326
▁prime	-11.7328
▁innocen	-11.733
ioxid	-11.7346
oá	-11.7349
▁receiv	-11.7353
▁recogniz	-11.7354
▁classic	-11.7355
▁categor	-11.7356
▁trun	-11.737
▁nầ	-11.7384
▁suit	-11.7413
▁xí	-11.7417
aria	-11.7435
▁lobe	-11.7441
găn	-11.7448
▁ồ	-11.745
▁viewer	-11.7457
fold	-11.7459
▁manag	-11.7471
▁quantit	-11.7476
ame	-11.749
rick	-11.7492
▁fish	-11.7504
ham	-11.7507
▁imp	-11.751
DL	-11.7517
▁speaker	-11.7519
▁bath	-11.7523
▁title	-11.7532
▁lố	-11.7537
▁neuro	-11.7543
▁expectan	-11.7553
▁Mala	-11.7559
ux	-11.7571
▁compress	-11.7577
▁cl	-11.7578
zing	-11.7588
forward	-11.759
cho	-11.7593
traumati	-11.7599
▁knee	-11.7603
rẻ	-11.7613
▁Ca	-11.7615
▁score	-11.7617
▁Ben	-11.7617
▁Nic	-11.7618
▁structur	-11.7623
▁Je	-11.7629
▁Pan	-11.7633
▁trà	-11.7647
yard	-11.7648
▁taxi	-11.765
▁bẩn	-11.7652
▁ignoran	-11.7671
west	-11.7672
▁fresh	-11.7674
ổi	-11.7681
temporar	-11.7682
▁explode	-11.7682
▁Tha	-11.7688
▁select	-11.7699
dy	-11.7701
tar	-11.7704
▁Arab	-11.7705
▁nerv	-11.7709
▁bias	-11.771
iếm	-11.7711
▁Tim	-11.7712
▁mé	-11.7712
bridge	-11.7713
▁loot	-11.7728
ative	-11.7728
que	-11.773
robi	-11.7753
▁3,	-11.7755
lines	-11.7766
▁personalit	-11.7776
▁vả	-11.778
▁complexit	-11.7782
▁conclude	-11.7783
▁priorit	-11.7788
▁organi	-11.779
ound	-11.7794
Q	-11.7799
▁experienc	-11.7801
vado	-11.7804
▁ru	-11.7809
ones	-11.7812
eduction	-11.7817
▁buri	-11.7827
▁angr	-11.7833
▁xơ	-11.7864
▁purchase	-11.7871
oảng	-11.7878
▁disconnect	-11.7879
▁sum	-11.7881
ck	-11.7889
▁mar	-11.7891
inning	-11.7893
▁danc	-11.7912
ker	-11.7924
▁bồi	-11.7929
▁analyze	-11.7931
▁tủ	-11.7932
▁activate	-11.7932
ification	-11.7933
▁lie	-11.7948
▁phú	-11.795
▁propos	-11.7962
▁calcul	-11.7967
▁ơi	-11.7978
ber	-11.7978
▁host	-11.7979
▁bomb	-11.798
try	-11.7984
▁bla	-11.7984
▁Syria	-11.7985
▁tị	-11.7993
▁van	-11.7993
▁cable	-11.7995
▁tìn	-11.7998
ologist	-11.8001
▁acqui	-11.8007
dependent	-11.8019
09	-11.8045
▁degrade	-11.8045
▁ruộ	-11.8048
▁worker	-11.8058
▁quạ	-11.8072
▁lit	-11.8073
▁dry	-11.8081
▁peace	-11.8085
▁Senegal	-11.8085
▁stigma	-11.8085
▁Columbia	-11.8085
▁Palestine	-11.8085
▁isotope	-11.8085
▁nutrient	-11.8085
▁sophisticat	-11.8085
▁default	-11.8085
▁kilogram	-11.8085
▁volume	-11.8085
▁genuine	-11.8086
▁lecture	-11.8086
▁license	-11.8086
▁Borane	-11.8086
▁excellen	-11.8086
▁August	-11.8086
▁dismiss	-11.8086
▁Zucker	-11.8086
▁depriv	-11.8086
▁monument	-11.8086
▁scratch	-11.8086
▁Research	-11.8086
▁illusion	-11.8086
▁maintain	-11.8086
▁sidewalk	-11.8086
▁cemeter	-11.8086
▁comparison	-11.8086
▁Discover	-11.8086
▁apparent	-11.8086
▁arrangement	-11.8086
▁cyber	-11.8086
▁Egyptian	-11.8086
▁1940	-11.8086
▁gallon	-11.8086
▁fragment	-11.8086
▁Network	-11.8087
▁seedling	-11.8087
▁adjust	-11.8087
▁Economist	-11.8088
▁mathematician	-11.8088
▁fiction	-11.8088
▁sentiment	-11.8088
▁decent	-11.8088
▁deaf	-11.8088
▁Grow	-11.8088
▁Titan	-11.8088
▁cousin	-11.8088
▁division	-11.8089
▁pai	-11.8089
▁therapist	-11.8089
▁metaphor	-11.8089
▁horizontal	-11.8089
▁sibling	-11.8089
▁infant	-11.809
▁tragic	-11.809
▁corporation	-11.8091
▁relation	-11.8092
▁guilt	-11.8093
▁forbid	-11.8094
▁DB	-11.8095
▁Shir	-11.8095
jelly	-11.8095
▁suicid	-11.8096
▁minor	-11.8096
▁cafe	-11.8097
▁kilometer	-11.8099
▁patent	-11.8101
▁zone	-11.8101
▁zoom	-11.8102
▁incomplete	-11.8102
và	-11.8102
▁float	-11.8103
▁objective	-11.8104
▁salad	-11.8104
▁progressive	-11.8105
▁Palm	-11.8106
▁womb	-11.811
tôi	-11.811
▁mysteri	-11.8112
▁twist	-11.8112
▁vers	-11.8114
dium	-11.8118
▁protection	-11.8119
▁textile	-11.8119
▁supplie	-11.812
▁disabl	-11.8122
▁session	-11.8123
▁Mù	-11.8124
▁propose	-11.8128
▁utter	-11.8129
hạm	-11.8129
▁presentation	-11.813
▁warning	-11.8131
▁ambition	-11.8132
▁punish	-11.8134
▁strategic	-11.8135
▁conservative	-11.8136
▁phase	-11.8137
▁oxy	-11.8139
▁recipe	-11.8141
▁asset	-11.815
▁weekend	-11.8155
▁Fortun	-11.8157
ess	-11.8158
▁governor	-11.8158
▁Grand	-11.8159
▁ran	-11.8161
▁46	-11.8166
useum	-11.8167
sition	-11.817
▁custom	-11.8173
▁quặ	-11.8173
▁bầ	-11.8174
▁butter	-11.8177
▁chromosome	-11.8188
▁Por	-11.8188
▁Shake	-11.8192
▁linear	-11.8193
▁eco	-11.8195
▁Luci	-11.8203
▁round	-11.821
▁arriv	-11.8217
▁loo	-11.8226
▁leap	-11.823
▁beast	-11.8238
▁bù	-11.8243
▁threaten	-11.8251
▁gray	-11.8256
ust	-11.8256
▁Đứ	-11.8261
ge	-11.8263
▁2.0	-11.8268
▁Sn	-11.8275
▁emergenc	-11.8285
▁farmer	-11.829
▁Thai	-11.8305
▁Tư	-11.8315
state	-11.8317
▁writer	-11.8317
▁charm	-11.8317
▁printer	-11.8323
▁Art	-11.8331
▁polls	-11.8334
▁Roy	-11.8338
▁attache	-11.8352
pite	-11.8352
▁digni	-11.8355
▁outrage	-11.8355
▁loud	-11.8357
place	-11.8379
dela	-11.8391
▁Livi	-11.8396
▁Nă	-11.84
nual	-11.8407
ooting	-11.8408
sh	-11.8409
like	-11.842
▁render	-11.8421
▁Camer	-11.8421
election	-11.8421
▁confus	-11.8425
▁resist	-11.8435
▁humili	-11.8438
dget	-11.8441
sus	-11.8455
▁Chà	-11.8461
ner	-11.8472
▁hang	-11.848
▁bẩ	-11.8482
ft	-11.8482
▁recording	-11.8484
▁Though	-11.8485
▁Bi	-11.8488
ike	-11.8495
make	-11.8509
▁ja	-11.8514
▁thes	-11.8549
ảnh	-11.8552
▁wild	-11.8566
▁Sure	-11.8575
oundation	-11.8577
un	-11.8583
▁Hum	-11.8588
▁entr	-11.8599
plin	-11.8601
▁Swe	-11.8619
ows	-11.8621
▁suppress	-11.8643
▁Hav	-11.8649
mart	-11.8652
▁serv	-11.8672
▁mạ	-11.8681
▁Dut	-11.8686
ee	-11.8696
▁gang	-11.8701
▁behave	-11.8708
gs	-11.871
force	-11.8715
reedom	-11.8717
mp	-11.8719
▁sta	-11.8722
national	-11.8733
▁seri	-11.874
▁CE	-11.8745
umb	-11.8747
▁Marc	-11.8754
▁diagnos	-11.877
▁Bol	-11.8772
một	-11.8774
apes	-11.8794
vasive	-11.8796
BC	-11.8798
▁arrow	-11.8798
▁optimiz	-11.8807
▁confuse	-11.8814
▁alg	-11.8814
▁rubb	-11.8815
▁Sher	-11.8834
▁rô	-11.8838
pleasant	-11.8839
ịnh	-11.8847
▁salar	-11.8874
ny	-11.8875
&	-11.8881
▁phấ	-11.8891
▁optimist	-11.8894
▁pan	-11.8908
▁pot	-11.8921
▁dens	-11.8928
▁consist	-11.8936
▁lậ	-11.8945
▁Was	-11.8947
▁Net	-11.896
ơm	-11.896
op	-11.8963
▁Muh	-11.8964
▁Rom	-11.8976
▁enhance	-11.8985
▁resistan	-11.8995
rees	-11.9
▁Israeli	-11.9
▁Matt	-11.9003
▁achiev	-11.9003
▁Tur	-11.9018
ap	-11.902
▁publishe	-11.9031
▁dropp	-11.904
tical	-11.9047
▁Inde	-11.9053
▁encourag	-11.9054
▁stare	-11.9059
▁26	-11.9066
avage	-11.9069
▁gut	-11.9069
lands	-11.9074
abi	-11.9086
ifer	-11.909
las	-11.9092
nning	-11.9093
US	-11.9114
▁profession	-11.9117
▁Cal	-11.9118
▁Ug	-11.9123
▁logical	-11.9129
iler	-11.9133
▁kin	-11.9138
là	-11.914
▁Walk	-11.914
▁worship	-11.9142
▁Med	-11.9147
▁Mada	-11.9147
ics	-11.9151
▁chăn	-11.9157
▁arra	-11.9158
media	-11.9162
water	-11.9168
▁believ	-11.9189
▁wrap	-11.9196
▁xà	-11.9203
li	-11.9204
uê	-11.9206
▁deli	-11.9215
▁prim	-11.9217
▁Mu	-11.9221
▁erect	-11.9228
▁xé	-11.9232
ember	-11.9235
phen	-11.9235
▁phô	-11.9246
▁humble	-11.9256
▁charit	-11.9256
▁controll	-11.9257
chang	-11.9266
venture	-11.9271
iff	-11.9272
iji	-11.9276
ealous	-11.9284
▁administrati	-11.9287
▁130	-11.9288
ours	-11.9297
▁devastat	-11.9335
▁spectacular	-11.9335
parallel	-11.9335
Í	-11.9335
▁ADHD	-11.9335
▁Cornell	-11.9335
▁DMV	-11.9335
▁adolescen	-11.9335
▁dwarf	-11.9335
▁lesbian	-11.9335
▁neglect	-11.9335
▁sculpture	-11.9335
▁Kafk	-11.9336
▁flavor	-11.9336
▁mismatch	-11.9336
▁unbelievabl	-11.9336
▁ecosystem	-11.9336
▁ultra	-11.9336
▁garden	-11.9336
▁grab	-11.9336
▁fingerprint	-11.9336
▁incident	-11.9336
▁bargain	-11.9336
▁Korea	-11.9336
▁paralyze	-11.9336
▁commitment	-11.9336
▁Frank	-11.9336
▁physician	-11.9336
▁characteristic	-11.9336
BI	-11.9336
▁pipeline	-11.9336
▁relief	-11.9337
▁DARPA	-11.9337
▁magnet	-11.9337
▁Danny	-11.9337
▁yield	-11.9337
▁inspector	-11.9337
▁magnetic	-11.9337
▁unknown	-11.9337
▁competitor	-11.9337
▁panic	-11.9337
▁Gaga	-11.9338
▁medication	-11.9338
▁1960	-11.9338
▁domino	-11.9338
▁soldier	-11.9338
▁Ohio	-11.9339
▁1975	-11.9339
▁1800	-11.9339
▁milk	-11.9339
▁Kub	-11.9339
▁premise	-11.934
▁impression	-11.934
▁pump	-11.934
▁intensive	-11.934
▁variable	-11.934
▁Voice	-11.934
▁abandon	-11.9341
amed	-11.9341
▁sweat	-11.9341
▁engagement	-11.9341
▁fiber	-11.9342
▁Glenn	-11.9342
▁2030	-11.9343
▁harsh	-11.9343
▁association	-11.9343
▁consultant	-11.9343
▁Fat	-11.9344
▁anonym	-11.9345
▁defense	-11.9345
▁flight	-11.9345
▁affection	-11.9345
▁appearance	-11.9345
▁payment	-11.9345
▁retain	-11.9346
▁manner	-11.9346
▁detection	-11.9347
▁regulation	-11.9348
▁deliberate	-11.9348
cussion	-11.9348
▁Bờ	-11.9348
▁grill	-11.9348
▁birthday	-11.9349
▁coach	-11.935
▁Ướ	-11.9351
▁roof	-11.9352
▁contest	-11.9352
0	-11.9352
▁casual	-11.9353
▁apartment	-11.9353
▁skeptic	-11.9353
▁finance	-11.9355
▁steal	-11.9356
▁assure	-11.936
▁vẹn	-11.9367
▁Andrew	-11.9368
▁nose	-11.9373
▁2002	-11.9373
▁enterprise	-11.9374
▁style	-11.9374
▁Crist	-11.9375
▁tender	-11.9375
▁Lord	-11.9376
▁Greg	-11.9379
▁Jim	-11.938
lbert	-11.9383
▁shoulder	-11.9384
▁headline	-11.9387
board	-11.9387
▁ticket	-11.9388
▁narco	-11.939
▁terrify	-11.9392
▁escape	-11.9393
▁spring	-11.9396
▁52	-11.9397
lie	-11.9398
▁Merc	-11.9399
▁vù	-11.9401
▁boots	-11.9405
▁Carl	-11.9408
▁restrict	-11.9411
length	-11.9413
eas	-11.9416
▁label	-11.9417
▁lang	-11.942
nternational	-11.9421
▁Thị	-11.9422
▁adventure	-11.9425
▁distribut	-11.943
▁polariz	-11.9432
▁Mac	-11.9436
▁expectation	-11.9441
▁telescope	-11.9444
▁Mê	-11.9451
▁tiger	-11.9452
its	-11.9455
▁typ	-11.9455
▁divers	-11.9455
▁Gui	-11.9465
▁variet	-11.9473
80	-11.9475
▁weigh	-11.9479
▁designe	-11.9483
▁liberal	-11.9484
▁66	-11.9484
▁convert	-11.9485
▁stranger	-11.9486
▁lê	-11.9487
▁mood	-11.9488
▁distan	-11.9488
▁enem	-11.9493
▁ratio	-11.95
set	-11.95
▁salt	-11.9502
▁na	-11.9506
58	-11.9509
▁Iran	-11.951
aster	-11.9514
▁Bel	-11.9523
▁east	-11.9523
▁frustrate	-11.9524
ail	-11.9534
▁Hy	-11.9538
▁gamer	-11.9542
aring	-11.9555
▁calorie	-11.9557
sel	-11.9561
▁controlle	-11.9564
▁Hungar	-11.9565
▁maker	-11.9588
▁CL	-11.9589
etra	-11.9589
▁mỹ	-11.9593
▁Ap	-11.9595
▁Yo	-11.9598
▁flat	-11.9598
▁texti	-11.9607
▁gam	-11.9616
▁Scot	-11.9618
ew	-11.9622
▁vãn	-11.9623
rium	-11.9625
phi	-11.9625
Os	-11.9626
▁calm	-11.9635
▁Live	-11.9637
▁wood	-11.9645
67	-11.9649
▁Give	-11.9661
▁stake	-11.9662
▁Asian	-11.9665
▁opt	-11.9669
mous	-11.9674
▁storm	-11.9681
ole	-11.9686
▁miser	-11.9687
▁nã	-11.9689
▁29	-11.9703
▁Sid	-11.9706
scar	-11.9708
▁Han	-11.971
au	-11.9712
▁Thirt	-11.9717
▁choos	-11.9719
▁Hind	-11.972
da	-11.9724
▁78	-11.9732
▁beating	-11.9732
ral	-11.9737
▁compell	-11.9739
ograph	-11.9745
▁mớ	-11.9747
▁competen	-11.9752
bi	-11.9755
ans	-11.9756
▁announce	-11.9756
▁Du	-11.9758
▁trơn	-11.9761
▁thoa	-11.977
▁ensure	-11.9778
▁Men	-11.9782
▁accus	-11.9782
▁shout	-11.9784
▁Old	-11.9784
hũ	-11.9786
▁gu	-11.9791
▁bồn	-11.9792
▁recycle	-11.9794
▁conventional	-11.9797
▁bold	-11.9819
▁kick	-11.9821
▁ride	-11.983
▁virtu	-11.983
▁distract	-11.985
hạc	-11.9858
▁Sco	-11.9863
▁suc	-11.9864
▁Mom	-11.9869
ul	-11.9874
hù	-11.9875
▁Joe	-11.9879
heo	-11.9887
down	-11.9895
▁regulate	-11.991
sis	-11.9915
▁highway	-11.9916
allas	-11.9933
arna	-11.9942
pe	-11.9947
▁ser	-11.995
▁reference	-11.9951
▁consume	-11.9955
▁convinc	-11.996
▁diagnose	-11.9969
▁tear	-11.9979
▁Chủ	-11.9985
▁producer	-11.9995
ghệ	-12.0001
▁cở	-12.0001
cou	-12.0003
▁eliminate	-12.0015
▁essen	-12.0018
ease	-12.0023
▁probab	-12.0026
▁gấ	-12.0029
▁snow	-12.0031
▁Ngư	-12.0033
▁shak	-12.0037
▁integrat	-12.0043
child	-12.0058
▁hel	-12.0059
iracle	-12.0061
meter	-12.0066
▁dirt	-12.007
▁Ex	-12.0078
X	-12.0097
▁fascinat	-12.0117
tube	-12.012
▁Get	-12.0121
comfort	-12.0123
olate	-12.0129
▁contribute	-12.0132
▁Maryl	-12.0133
▁sat	-12.0133
▁traumati	-12.0135
▁mi	-12.0136
end	-12.0141
bay	-12.0146
▁Us	-12.0149
mpassion	-12.0149
▁orient	-12.0158
hướng	-12.0159
▁điề	-12.0171
▁tackl	-12.0172
piece	-12.0176
bag	-12.0185
nson	-12.0188
▁Fred	-12.019
ational	-12.0192
▁Dea	-12.0193
urd	-12.0211
effective	-12.0231
enty	-12.0236
▁luồn	-12.0241
▁assembl	-12.0244
bus	-12.0249
▁vàng	-12.0251
▁developer	-12.026
▁sto	-12.0267
▁Gene	-12.0279
craft	-12.0282
has	-12.0296
▁misc	-12.03
▁von	-12.0303
▁cup	-12.031
▁Col	-12.031
hiên	-12.031
▁gián	-12.0312
▁expos	-12.0316
▁chair	-12.0327
▁parad	-12.0328
▁opening	-12.033
usion	-12.0332
venue	-12.0333
▁lọ	-12.0335
▁3.	-12.0339
transmitte	-12.0351
what	-12.0372
J	-12.0375
▁Bal	-12.0388
lem	-12.0395
▁behavioral	-12.0396
▁Appa	-12.0396
▁NS	-12.0396
wake	-12.0401
▁Cực	-12.0412
sleep	-12.0424
ade	-12.0429
uố	-12.0436
ches	-12.0448
▁tight	-12.0452
im	-12.0454
học	-12.0454
▁dem	-12.0457
60	-12.0468
phone	-12.0469
▁observe	-12.0469
▁bế	-12.047
omething	-12.0473
▁Nag	-12.048
▁ugl	-12.0508
▁execute	-12.051
▁tro	-12.0528
nife	-12.053
▁Bod	-12.0537
▁hid	-12.0542
▁owner	-12.0544
▁Sha	-12.0557
view	-12.056
echnolog	-12.0572
▁cloth	-12.0574
▁understo	-12.0575
▁fle	-12.0576
ẹ	-12.0577
▁tea	-12.058
▁awake	-12.0597
ray	-12.061
▁archaeolog	-12.0611
▁strik	-12.0612
hô	-12.0614
▁democrati	-12.0622
▁San	-12.0623
ỗng	-12.0625
ot	-12.0626
▁mượ	-12.0632
nik	-12.064
ality	-12.064
▁architect	-12.0648
▁independen	-12.0652
▁Moo	-12.066
▁ngụ	-12.0668
▁contributi	-12.0671
▁flip	-12.0678
story	-12.0687
for	-12.069
top	-12.0701
ament	-12.0701
29	-12.0712
▁plug	-12.0712
▁phun	-12.0713
▁frag	-12.0713
eful	-12.0715
▁football	-12.0727
path	-12.0731
▁mile	-12.0732
▁terror	-12.0741
▁đệ	-12.0741
hy	-12.0745
▁eth	-12.0755
lite	-12.076
▁install	-12.0761
▁BRCK	-12.0764
▁Ferguson	-12.0764
▁Institute	-12.0764
▁electromagneti	-12.0764
▁horror	-12.0764
▁immense	-12.0764
▁oncogene	-12.0764
▁tunnel	-12.0764
▁virgin	-12.0764
▁CIA	-12.0764
▁episode	-12.0764
▁intimidat	-12.0764
▁psychopath	-12.0764
▁stomach	-12.0764
▁overlord	-12.0764
▁skull	-12.0764
▁stroke	-12.0764
▁Negro	-12.0764
▁ambigu	-12.0764
elecommunication	-12.0764
▁supermarket	-12.0764
▁uniform	-12.0764
▁piano	-12.0764
▁modulator	-12.0764
▁diabet	-12.0764
▁Strip	-12.0764
▁counterpart	-12.0764
▁provision	-12.0764
▁Government	-12.0764
▁bailout	-12.0764
▁cruel	-12.0764
▁garage	-12.0765
▁disappear	-12.0765
▁shadow	-12.0765
▁workshop	-12.0765
▁Business	-12.0765
▁bullet	-12.0766
▁interconnected	-12.0766
▁legend	-12.0766
▁continuous	-12.0766
▁bowl	-12.0767
▁betrayal	-12.0767
▁Carib	-12.0767
▁Olympic	-12.0767
▁profile	-12.0767
▁girlfriend	-12.0767
▁personalize	-12.0768
▁mammal	-12.0768
▁weakness	-12.0768
▁scholarship	-12.0768
▁TEDster	-12.0768
▁Super	-12.0768
huỳ	-12.0768
▁friendship	-12.0768
▁excess	-12.0768
▁8:	-12.0768
▁textbook	-12.0768
▁carrot	-12.0769
▁concentration	-12.077
▁stereotyp	-12.077
▁annoy	-12.077
▁genomic	-12.0771
▁contradiction	-12.0771
PA	-12.0771
agical	-12.0771
▁Prince	-12.0771
▁variation	-12.0771
▁empty	-12.0771
▁temple	-12.0771
▁simulation	-12.0772
▁orbit	-12.0772
▁180	-12.0773
▁institutional	-12.0774
▁mycorrhiza	-12.0774
▁Leaders	-12.0774
▁increment	-12.0776
▁prosper	-12.0779
▁limb	-12.078
▁spray	-12.0781
▁Four	-12.0782
▁Spa	-12.0784
▁flicker	-12.0784
▁Through	-12.0786
▁Water	-12.0786
▁reflection	-12.0787
▁doubt	-12.0788
▁upset	-12.0788
▁Pro	-12.079
▁sales	-12.079
▁vibrati	-12.079
▁fence	-12.0793
▁archaeologist	-12.0793
▁Mmm	-12.0794
▁bleed	-12.0796
▁identification	-12.08
▁Fr	-12.08
▁sulf	-12.0803
▁subtle	-12.0803
▁backup	-12.0803
▁sharp	-12.0805
▁contribution	-12.0805
▁glad	-12.0806
▁appeal	-12.0807
▁uninten	-12.0807
▁laureate	-12.0808
▁atheist	-12.081
▁Clear	-12.0811
▁favor	-12.0815
▁homicide	-12.0815
▁competitive	-12.0818
▁Michoacan	-12.0818
apien	-12.0819
có	-12.0819
▁đuôi	-12.0819
▁permanent	-12.0822
▁Win	-12.0825
hẩm	-12.0826
▁voluntar	-12.0826
▁achievement	-12.0827
▁infra	-12.0827
▁club	-12.0829
▁construction	-12.0831
evelopment	-12.0833
▁vaccine	-12.0833
▁triple	-12.0845
▁Templ	-12.085
▁vã	-12.0857
ions	-12.0859
▁ruin	-12.0859
▁rỗng	-12.0867
▁euro	-12.0867
▁refugee	-12.0868
istress	-12.0868
med	-12.087
ives	-12.087
▁command	-12.0872
▁195	-12.0873
care	-12.0879
▁Hydr	-12.0883
▁prisoner	-12.0885
full	-12.0887
▁beside	-12.0888
▁deck	-12.0889
▁coll	-12.0889
▁limitation	-12.0892
▁Cath	-12.0895
▁Stef	-12.0899
▁plac	-12.09
iger	-12.0905
▁lonel	-12.0908
sumption	-12.0918
▁Ji	-12.0918
ith	-12.0923
▁unrel	-12.0923
▁pathway	-12.0928
▁queen	-12.0933
oán	-12.0933
▁Ti	-12.0934
▁cop	-12.0936
▁pile	-12.0937
▁requir	-12.0948
▁br	-12.0949
bodie	-12.095
▁mari	-12.0955
ership	-12.0956
anthrop	-12.0958
▁Profess	-12.0962
▁declare	-12.0962
trong	-12.0964
▁cream	-12.0968
▁projection	-12.0971
▁idiot	-12.0976
▁Ken	-12.098
ac	-12.0984
amma	-12.0984
▁vein	-12.0986
▁po	-12.099
▁exit	-12.0991
under	-12.0999
▁lượn	-12.101
▁donate	-12.1014
▁collecti	-12.1015
▁fami	-12.1018
▁đươ	-12.1026
nia	-12.1035
entia	-12.1037
abo	-12.1038
▁dread	-12.1038
▁confusi	-12.1044
▁happie	-12.1044
maker	-12.1051
olo	-12.1052
▁anticipate	-12.1061
hôn	-12.1062
▁breathe	-12.1064
▁surrounding	-12.107
▁craft	-12.107
▁spin	-12.1071
▁1.5	-12.1076
▁conspirac	-12.1082
▁commun	-12.1095
▁describ	-12.11
▁figur	-12.1105
▁extract	-12.1113
ps	-12.1118
▁Dar	-12.1124
▁1,8	-12.1126
▁liề	-12.1129
ef	-12.1137
▁Top	-12.1145
▁kit	-12.1147
articulate	-12.1151
▁Mari	-12.1164
▁kidnapp	-12.1165
▁fold	-12.1167
▁strike	-12.1178
▁chem	-12.1181
▁contra	-12.1181
qua	-12.1183
▁transformati	-12.1187
▁acknowledge	-12.1192
▁navigate	-12.1199
▁Hàn	-12.1199
▁minded	-12.1208
78	-12.1209
active	-12.1212
▁organiz	-12.1213
▁rebuild	-12.1218
▁Fro	-12.1221
▁firm	-12.1224
▁Twent	-12.1233
▁nest	-12.1237
lay	-12.1238
▁operat	-12.1239
▁captur	-12.1239
▁intersection	-12.1242
▁67	-12.1251
▁admire	-12.1257
▁dedicat	-12.1258
▁op	-12.127
▁Câ	-12.1276
tain	-12.1276
▁quot	-12.1277
▁đứt	-12.1278
▁ex	-12.1288
▁approve	-12.13
▁Đế	-12.13
itude	-12.1302
ney	-12.131
▁Amy	-12.1329
etic	-12.133
▁pray	-12.1332
▁hố	-12.1342
truck	-12.1346
▁Mi	-12.1362
▁ill	-12.1369
veral	-12.1372
ast	-12.1374
▁island	-12.1376
▁hí	-12.1384
▁river	-12.1391
▁spark	-12.1392
▁accountab	-12.1393
▁kề	-12.1402
▁recept	-12.1402
▁Put	-12.1403
▁Zi	-12.1405
hân	-12.1416
uật	-12.1416
ances	-12.143
cel	-12.143
▁seeming	-12.1433
▁Jed	-12.1442
ff	-12.1444
▁multiplic	-12.1447
▁specialize	-12.1456
tr	-12.1463
▁imag	-12.1464
▁nhàng	-12.1466
rome	-12.1482
stick	-12.1486
▁persist	-12.1493
▁programm	-12.1494
goài	-12.1495
▁clos	-12.1498
▁innovat	-12.15
▁recover	-12.1503
17	-12.1508
ba	-12.1512
eth	-12.1522
▁occasional	-12.1523
▁Tay	-12.1524
ãn	-12.1526
cer	-12.1531
▁Ga	-12.1532
▁phon	-12.1533
epresentative	-12.1534
▁cườ	-12.1536
▁practic	-12.1539
▁distort	-12.1542
▁meal	-12.1545
point	-12.1546
ntha	-12.1548
▁covert	-12.155
▁clari	-12.1551
▁sustainab	-12.1554
glob	-12.156
▁Mobil	-12.1562
urning	-12.1569
bon	-12.1569
rd	-12.157
▁stream	-12.1573
boy	-12.1574
▁probe	-12.1581
▁Pop	-12.1585
▁sấ	-12.1592
▁medal	-12.1592
▁preserve	-12.1599
eat	-12.1612
▁amen	-12.1618
holes	-12.162
rò	-12.1621
▁Xé	-12.1621
▁Wit	-12.1625
han	-12.1632
▁bell	-12.165
▁import	-12.1662
▁entit	-12.1668
equal	-12.167
org	-12.1671
▁Sneaker	-12.1672
▁Hop	-12.1673
▁rep	-12.168
shore	-12.1696
uôi	-12.17
yền	-12.1701
▁confine	-12.1724
▁Br	-12.1727
▁educat	-12.1728
▁sight	-12.173
▁entrepreneur	-12.1733
▁compa	-12.1735
audi	-12.1736
billion	-12.1738
vial	-12.1741
think	-12.1742
social	-12.1747
chúng	-12.1763
▁lề	-12.1765
▁accomplish	-12.1765
▁sôi	-12.1767
kers	-12.1772
▁interven	-12.1777
hát	-12.1778
▁wildl	-12.1779
era	-12.1782
j	-12.1782
▁reduc	-12.179
▁impos	-12.179
▁assist	-12.1792
ki	-12.1793
▁thinkin	-12.1797
lor	-12.18
tag	-12.1802
fast	-12.1804
▁fed	-12.1809
▁examine	-12.1809
▁đón	-12.181
erger	-12.1811
▁mọc	-12.1812
35	-12.1818
dial	-12.182
sterda	-12.1823
▁kille	-12.1829
▁Par	-12.1853
▁compass	-12.1857
▁cart	-12.1866
▁minim	-12.187
▁polic	-12.1871
▁optimis	-12.1872
chan	-12.1876
▁atoni	-12.1876
▁chose	-12.1882
▁dá	-12.1886
ryl	-12.1904
Sahara	-12.1906
zi	-12.1916
esting	-12.1922
tial	-12.1929
▁celebrat	-12.1935
▁mó	-12.1937
▁manual	-12.1939
airo	-12.1941
▁uter	-12.1954
những	-12.1955
▁integrati	-12.1957
Y	-12.1974
quarter	-12.1981
▁Dha	-12.1983
hanh	-12.1988
▁lô	-12.1988
nfortunate	-12.1989
organ	-12.1999
▁mirac	-12.2002
▁rais	-12.2007
clock	-12.201
ago	-12.2025
▁screens	-12.2036
W	-12.2038
▁chôn	-12.204
colat	-12.2048
ola	-12.2049
har	-12.2059
ube	-12.2071
èn	-12.2074
▁Frie	-12.2079
▁vụn	-12.2079
bor	-12.2082
▁Sud	-12.2089
▁Real	-12.209
▁Kare	-12.2093
▁dish	-12.2106
ating	-12.2107
nk	-12.2112
▁elementa	-12.2123
▁Make	-12.2123
rice	-12.2129
▁el	-12.2133
▁strategi	-12.2135
code	-12.2147
ồ	-12.215
▁Jon	-12.2155
500	-12.2157
▁giã	-12.217
▁satisf	-12.218
oreign	-12.2185
▁wow	-12.2201
▁distinct	-12.2204
▁expo	-12.2205
▁spice	-12.2205
▁refer	-12.2213
lance	-12.2214
▁cra	-12.2217
▁zip	-12.2241
▁pseudo	-12.2242
ca	-12.2245
▁categori	-12.2265
▁vầ	-12.2266
▁qui	-12.2288
inform	-12.2291
▁hardw	-12.2291
sion	-12.2296
bell	-12.2298
"	-12.23
look	-12.2307
▁niệ	-12.2313
▁rehabilitati	-12.2314
▁điế	-12.2318
▁phớ	-12.2318
reas	-12.2323
▁Fa	-12.2336
▁bel	-12.2338
bsolute	-12.2346
lin	-12.2347
▁140	-12.2349
▁phe	-12.2354
▁hunt	-12.2364
▁expan	-12.2366
▁360	-12.2368
▁syno	-12.237
▁4,	-12.2375
izab	-12.2383
▁ré	-12.2384
▁Eli	-12.239
▁diff	-12.2393
odera	-12.24
▁reverse	-12.2403
nicit	-12.2411
▁việ	-12.2413
▁proportion	-12.2415
fi	-12.2417
▁fung	-12.242
▁Atla	-12.2421
▁manifest	-12.2422
real	-12.2428
▁instinct	-12.2429
▁deploy	-12.2429
rizon	-12.2429
▁1,2	-12.243
▁fantas	-12.243
–	-12.2431
▁Holocen	-12.2431
▁Skinner	-12.2431
▁Somalia	-12.2431
▁Stonewall	-12.2431
▁accommodate	-12.2431
▁astronom	-12.2431
▁bottleneck	-12.2431
▁climax	-12.2431
▁dilemma	-12.2431
▁divorce	-12.2431
▁explicit	-12.2431
▁pajama	-12.2431
▁perfumer	-12.2431
▁respirator	-12.2431
▁scaffold	-12.2431
▁zombie	-12.2431
▁Daniel	-12.2431
▁Shanghai	-12.2431
▁Zambia	-12.2431
▁agricultur	-12.2431
▁approximate	-12.2431
▁inhibit	-12.2431
▁monogam	-12.2431
▁NYU	-12.2431
▁Saidull	-12.2431
▁biofuel	-12.2431
▁decrypt	-12.2431
▁acoustic	-12.2431
▁hairstyle	-12.2431
▁inevitabl	-12.2431
▁MDG	-12.2431
▁Nepal	-12.2431
▁swallow	-12.2431
▁autonom	-12.2431
▁Mitchel	-12.2431
▁transfer	-12.2431
▁unemploy	-12.2431
▁Exact	-12.2431
▁wavelength	-12.2431
▁scream	-12.2431
▁grandmaster	-12.2431
▁proteomic	-12.2431
▁Alhur	-12.2431
▁deathbed	-12.2431
▁preacher	-12.2431
▁Oslo	-12.2431
▁Lizzi	-12.2431
▁desert	-12.2431
▁corpse	-12.2431
▁passport	-12.2431
▁foolish	-12.2431
▁bulb	-12.2431
▁luxur	-12.2431
▁staff	-12.2431
▁1840	-12.2431
▁hurdle	-12.2431
▁awoke	-12.2431
▁Recent	-12.2432
▁patternicit	-12.2432
▁millennia	-12.2432
▁unconscious	-12.2432
▁Keep	-12.2432
▁perpetrator	-12.2432
▁curator	-12.2432
▁implicit	-12.2432
▁sugar	-12.2432
▁midwife	-12.2432
▁propagand	-12.2432
▁genius	-12.2432
▁foster	-12.2432
▁preference	-12.2432
▁overlap	-12.2432
▁disturbance	-12.2433
▁bicycle	-12.2433
▁impair	-12.2433
▁Piarc	-12.2433
arry	-12.2433
▁Minne	-12.2434
▁Nerve	-12.2434
▁Fox	-12.2434
▁geek	-12.2434
▁Cypr	-12.2434
▁candidate	-12.2434
▁Oak	-12.2434
▁replacement	-12.2435
▁abundan	-12.2435
▁diplomatic	-12.2435
▁Brook	-12.2435
▁heaven	-12.2435
▁1993	-12.2435
▁flag	-12.2435
MD	-12.2435
▁incorrect	-12.2436
▁frustration	-12.2436
▁Shaba	-12.2436
▁Om	-12.2436
▁stumble	-12.2436
▁hyper	-12.2436
▁Open	-12.2436
▁Short	-12.2436
▁grabb	-12.2437
▁450	-12.2437
▁inherent	-12.2437
▁linguist	-12.2438
▁advancement	-12.2438
▁SBI	-12.2438
▁Declan	-12.2438
▁attractive	-12.2438
▁neutron	-12.2439
▁Journal	-12.244
▁Knight	-12.244
▁padd	-12.244
room	-12.244
▁merit	-12.244
▁Under	-12.244
▁Atheis	-12.2441
▁Shaw	-12.2441
▁Pink	-12.2441
▁sho	-12.2442
▁nuố	-12.2442
▁Greenw	-12.2443
▁hopeless	-12.2443
bama	-12.2444
▁measurement	-12.2444
▁dosage	-12.2445
▁ironic	-12.2446
▁184	-12.2446
▁restore	-12.2447
▁humor	-12.2447
tler	-12.2448
▁investigation	-12.2448
peare	-12.2449
▁possess	-12.2449
▁regulator	-12.245
▁cur	-12.2451
adequate	-12.2451
▁proof	-12.2451
▁neurosurgeon	-12.2452
▁coast	-12.2453
▁robotic	-12.2455
hối	-12.2455
odes	-12.2455
▁froze	-12.2458
▁Mende	-12.2458
cadem	-12.2458
chondr	-12.2461
▁anthropolog	-12.2461
▁PC	-12.2461
same	-12.2463
▁glim	-12.2463
▁strengthen	-12.2464
▁grind	-12.2467
▁Curiosit	-12.2467
▁cabin	-12.2467
▁High	-12.2468
than	-12.2469
gged	-12.2469
▁bend	-12.2473
cul	-12.2475
get	-12.2475
pedia	-12.2479
▁interrupt	-12.2479
▁Gram	-12.2482
▁src	-12.2483
gram	-12.2484
▁tissue	-12.2485
▁passive	-12.2485
▁56	-12.2489
▁Pass	-12.2489
▁underrepresent	-12.249
▁dump	-12.2493
▁stair	-12.2494
▁Scand	-12.2494
▁sponsor	-12.2494
▁Drug	-12.2495
▁Game	-12.2495
▁fortune	-12.2496
▁horrifi	-12.2496
▁aggressi	-12.2498
▁flaw	-12.2499
ological	-12.2499
▁renewable	-12.2499
▁allocat	-12.25
▁Ninet	-12.25
▁grid	-12.2503
▁therap	-12.2504
ietz	-12.2506
▁Đàn	-12.2507
varian	-12.251
▁fanc	-12.2513
▁argu	-12.2513
▁1.8	-12.2515
ulate	-12.2517
▁archer	-12.252
▁servi	-12.2522
ori	-12.2525
▁Gufti	-12.2526
▁Car	-12.2531
▁fool	-12.2531
▁facilit	-12.2531
yester	-12.2532
▁vibrate	-12.2532
▁container	-12.2537
anie	-12.2539
▁Gree	-12.2549
▁crew	-12.255
▁Jose	-12.2552
▁substitut	-12.2553
▁900	-12.2555
▁acquire	-12.2561
posed	-12.2562
▁differentiate	-12.2563
▁historic	-12.2564
▁tomb	-12.2568
ris	-12.2571
▁microscope	-12.2573
ssil	-12.2576
▁phỉ	-12.2578
▁Gat	-12.2579
▁offend	-12.2581
▁translat	-12.2582
▁ski	-12.2582
▁winter	-12.2583
▁intuitive	-12.2584
▁81	-12.2589
chai	-12.2589
▁celebrit	-12.2594
▁mount	-12.2595
heir	-12.2596
▁Chí	-12.2596
ju	-12.2597
▁phẳng	-12.2597
▁feeding	-12.2597
▁validate	-12.2598
rade	-12.2603
elatin	-12.2607
▁Pol	-12.2607
▁Penn	-12.2608
▁Turn	-12.2609
▁fur	-12.2614
▁petition	-12.2624
steroid	-12.2624
hợ	-12.2625
▁whip	-12.263
▁molecul	-12.2636
▁capsize	-12.2637
kins	-12.2641
NN	-12.2643
▁provider	-12.2649
▁breed	-12.2653
▁economi	-12.2654
▁niê	-12.2655
▁memorize	-12.2655
▁cremati	-12.2659
anks	-12.266
lar	-12.2669
▁decomposi	-12.2681
▁neurologic	-12.2684
▁nu	-12.2688
epartment	-12.2698
▁Lega	-12.2698
▁relations	-12.27
▁para	-12.27
▁gambl	-12.2707
eneral	-12.2714
▁Christ	-12.2715
▁pursue	-12.272
▁braver	-12.2724
act	-12.2725
actic	-12.2725
▁insur	-12.2727
▁mandate	-12.2728
▁Qa	-12.2728
burden	-12.2729
▁quark	-12.2747
▁theor	-12.2749
▁broad	-12.2749
▁audi	-12.2752
▁fortunate	-12.2755
mid	-12.2758
table	-12.2761
irport	-12.2772
rush	-12.2776
ense	-12.2787
▁phác	-12.2794
ents	-12.2794
▁grandm	-12.2795
▁indoor	-12.2797
▁roller	-12.2803
▁pit	-12.2804
▁xẻ	-12.2806
thy	-12.2811
lo	-12.282
▁matern	-12.2826
▁Cap	-12.2829
▁dì	-12.2832
▁Pe	-12.2833
udden	-12.2838
▁thè	-12.284
▁milli	-12.2841
ella	-12.2841
▁publisher	-12.2846
▁Bri	-12.2853
oth	-12.2857
clear	-12.2857
▁fu	-12.2859
▁resent	-12.2867
▁simulate	-12.287
▁offering	-12.2878
▁dominate	-12.2879
▁functionalit	-12.2886
▁val	-12.2886
uff	-12.2887
▁Francis	-12.2895
zy	-12.2898
wan	-12.2899
▁prop	-12.2901
▁bored	-12.2906
hemo	-12.2907
▁amaz	-12.2908
rmed	-12.2911
▁Bos	-12.2915
Fe	-12.2915
▁fetch	-12.2919
▁Inte	-12.2928
▁mentor	-12.2929
▁Đả	-12.2933
▁cheape	-12.2935
▁drag	-12.2938
▁photos	-12.2944
mework	-12.2949
▁bốp	-12.2952
▁ego	-12.2952
▁net	-12.2953
▁axi	-12.2954
oko	-12.2959
▁photon	-12.2959
▁auto	-12.2969
▁gener	-12.297
▁Lạ	-12.297
tein	-12.2972
▁commission	-12.2972
▁locate	-12.2981
▁genero	-12.2984
▁Thư	-12.2988
▁Night	-12.2993
▁Hel	-12.3001
▁shari	-12.3007
▁chew	-12.301
▁reinforce	-12.3016
▁award	-12.3017
▁Kenn	-12.3019
E	-12.3025
▁Centr	-12.3031
ger	-12.3035
lls	-12.3072
ilot	-12.3083
▁collaborate	-12.3087
▁Dia	-12.3089
▁bare	-12.3099
▁compar	-12.3104
▁1,	-12.3105
▁merge	-12.3113
ief	-12.3114
▁correlat	-12.313
isten	-12.3145
không	-12.3145
▁rò	-12.3149
▁Spr	-12.3152
▁shel	-12.3159
▁thoá	-12.316
▁pub	-12.316
ah	-12.317
▁Stor	-12.3175
▁chốn	-12.3178
ision	-12.3179
▁formal	-12.3185
▁advise	-12.3192
▁hash	-12.3194
▁Work	-12.3198
▁consen	-12.3199
apac	-12.32
▁dạn	-12.3201
▁colonize	-12.3203
companie	-12.321
▁thán	-12.3214
uế	-12.3216
▁sexti	-12.3216
invasive	-12.3217
▁sacr	-12.322
▁distill	-12.3222
▁renew	-12.3235
▁Kera	-12.3235
▁mock	-12.3241
rtition	-12.3244
▁icon	-12.3258
ds	-12.3274
▁hypothes	-12.3278
dies	-12.3289
▁tậ	-12.3289
▁fork	-12.3299
▁Hell	-12.3302
họ	-12.3303
▁Year	-12.3305
hemi	-12.331
DC	-12.3318
▁Sam	-12.3327
▁exceptional	-12.333
▁develope	-12.3331
▁dense	-12.3335
▁Ger	-12.3339
xon	-12.3344
hal	-12.3344
ls	-12.3351
ets	-12.3362
▁locke	-12.3366
▁stimulati	-12.337
▁colla	-12.3373
pper	-12.338
▁sộ	-12.3405
▁spec	-12.3419
▁concentrate	-12.3428
▁margin	-12.3429
cean	-12.3434
ud	-12.3435
▁advertise	-12.3438
▁droppe	-12.3442
ran	-12.3452
gger	-12.3454
▁generat	-12.3463
▁Typ	-12.3463
▁cris	-12.3465
hệ	-12.3466
hani	-12.3486
▁reasonabl	-12.3495
nding	-12.3497
tors	-12.3501
10	-12.3505
▁suns	-12.3513
mal	-12.3525
call	-12.3528
▁realm	-12.353
date	-12.354
▁isolate	-12.3541
stabiliz	-12.3542
▁presen	-12.355
▁stands	-12.3551
burg	-12.3563
▁gentle	-12.3564
▁dang	-12.3565
air	-12.3569
ượ	-12.3574
▁Fort	-12.3578
cover	-12.3594
▁jur	-12.3599
pur	-12.3599
▁Mor	-12.36
ach	-12.3611
come	-12.3617
▁Fer	-12.3619
▁mệ	-12.3626
estion	-12.3631
▁chil	-12.3636
▁spous	-12.3638
▁integr	-12.3652
▁Lầ	-12.366
▁Leg	-12.3662
▁Berke	-12.3672
xis	-12.3672
withstand	-12.3672
lip	-12.3673
gỗ	-12.3673
▁scarc	-12.3682
reservation	-12.3696
ographic	-12.3704
iterate	-12.3706
▁lucki	-12.371
▁proposi	-12.3718
encil	-12.3719
▁exhaust	-12.3722
▁dealer	-12.3725
▁mú	-12.3728
▁scare	-12.3747
morphi	-12.3747
iling	-12.376
▁Gal	-12.3766
▁lock	-12.3767
case	-12.377
▁negotiate	-12.3773
box	-12.3778
▁Khu	-12.3781
avia	-12.3783
tle	-12.3784
ghị	-12.3794
▁Book	-12.3801
▁cellulo	-12.3803
▁disc	-12.3828
nfide	-12.383
▁tape	-12.3839
▁gott	-12.384
ional	-12.384
▁deni	-12.3841
▁falli	-12.3844
ops	-12.3847
▁san	-12.3856
100	-12.3871
▁fate	-12.3874
▁hiế	-12.3875
▁poly	-12.3876
rcul	-12.3876
▁viole	-12.3877
embere	-12.3879
player	-12.3883
.5	-12.3888
ower	-12.3893
urkey	-12.3896
oge	-12.3905
▁shapes	-12.3908
▁highe	-12.3914
▁poo	-12.3926
▁mini	-12.3928
▁thạc	-12.3938
uma	-12.3939
▁pat	-12.3942
hú	-12.3943
▁inefficien	-12.3945
MRI	-12.3945
▁Fu	-12.3948
break	-12.3959
▁attach	-12.3968
▁Kim	-12.3968
▁xô	-12.3975
▁comfort	-12.3976
▁rigid	-12.3979
▁popp	-12.3985
▁ol	-12.3998
▁pros	-12.4
known	-12.4017
▁pose	-12.4022
▁Lad	-12.4037
▁chao	-12.4038
▁racis	-12.4045
▁trệ	-12.4052
▁cooki	-12.4064
▁convention	-12.4069
nders	-12.4077
long	-12.409
▁grat	-12.4094
hần	-12.4096
▁ignor	-12.4097
▁till	-12.4105
▁evolv	-12.4116
▁cuộ	-12.4134
sustainabl	-12.4136
▁interacti	-12.4139
you	-12.4142
▁lú	-12.4147
ulsi	-12.4149
ection	-12.4153
▁phil	-12.4157
▁ủ	-12.4157
▁sav	-12.4158
ference	-12.4168
bad	-12.4169
tro	-12.4169
▁Sac	-12.4177
▁milit	-12.4178
▁tactic	-12.4183
rain	-12.4185
▁gear	-12.4189
▁motivat	-12.419
icket	-12.4192
▁cog	-12.4194
▁Edi	-12.4195
fair	-12.4199
▁cr	-12.4215
libr	-12.4221
▁Mal	-12.4221
▁worm	-12.4222
arrier	-12.4245
ểu	-12.4246
lick	-12.4247
▁blob	-12.425
▁constrain	-12.4258
▁tempor	-12.4262
hảy	-12.4264
▁occup	-12.427
gi	-12.4276
▁digit	-12.4289
▁Lux	-12.4289
▁colon	-12.429
▁civi	-12.4294
▁sing	-12.4298
▁cạn	-12.4299
▁guns	-12.4311
▁devi	-12.4316
▁len	-12.432
▁tuôn	-12.4329
ross	-12.4336
▁marr	-12.4337
▁ambitio	-12.4348
▁consumpti	-12.4351
rid	-12.4351
▁Rap	-12.4353
▁sustain	-12.4354
▁pu	-12.4356
olic	-12.4358
▁kn	-12.4368
SD	-12.4371
▁Kr	-12.438
▁journal	-12.4385
▁nei	-12.4386
▁Nation	-12.4391
▁donat	-12.4392
ớm	-12.4398
▁Had	-12.44
▁credib	-12.4403
anz	-12.4406
83	-12.4408
▁extinct	-12.4412
▁exponent	-12.4413
rana	-12.4414
▁readers	-12.4414
▁duck	-12.442
▁Lí	-12.4421
▁phàn	-12.4426
ula	-12.4427
ublic	-12.4427
▁geograph	-12.4429
▁Six	-12.443
▁segregat	-12.4431
▁Elephant	-12.4431
▁Muslim	-12.4431
▁colonoscop	-12.4431
▁cultivate	-12.4431
▁distinguish	-12.4431
▁doctrine	-12.4431
▁homophobi	-12.4431
▁pavilion	-12.4431
▁pharmaceutical	-12.4431
▁plummet	-12.4431
▁reluctant	-12.4431
▁sufficient	-12.4431
▁turbulen	-12.4431
▁vegetarian	-12.4431
▁Ừ	-12.4431
▁Attack	-12.4431
▁McFadd	-12.4431
▁Soviet	-12.4431
▁disgust	-12.4431
▁leapfrog	-12.4431
▁triumph	-12.4431
▁cigar	-12.4431
▁fluoresce	-12.4431
▁psychiatri	-12.4431
▁puzzle	-12.4431
▁pioneer	-12.4431
▁telecom	-12.4431
▁elevator	-12.4431
▁holiday	-12.4431
▁elicit	-12.4431
▁jam	-12.4431
▁Secret	-12.4431
▁aesthetic	-12.4431
▁Societ	-12.4431
IKE	-12.4431
▁NNGDL	-12.4431
▁safeguard	-12.4431
▁fabric	-12.4431
▁unleash	-12.4431
▁Millenni	-12.4431
▁singular	-12.4431
▁landmark	-12.4431
▁barrel	-12.4431
▁enlighten	-12.4431
▁saliva	-12.4431
▁senior	-12.4431
▁disclosure	-12.4431
▁myelin	-12.4431
▁enrich	-12.4431
▁neurologist	-12.4431
▁Cyber	-12.4431
▁appoint	-12.4431
▁prevalen	-12.4431
▁stewards	-12.4431
▁drama	-12.4431
▁envision	-12.4431
▁paragraph	-12.4431
▁compliment	-12.4432
▁eager	-12.4432
▁pinata	-12.4432
▁smartphone	-12.4432
▁grandpa	-12.4432
▁screw	-12.4432
▁assessment	-12.4432
▁accomplishment	-12.4432
▁System	-12.4432
▁fruit	-12.4432
▁harness	-12.4432
▁kindergart	-12.4432
▁deficit	-12.4432
▁guardian	-12.4432
▁fraction	-12.4433
▁dilute	-12.4433
▁knuckle	-12.4433
▁disabilit	-12.4433
▁puppet	-12.4433
▁circulation	-12.4433
▁grownup	-12.4433
▁alleged	-12.4433
▁physicist	-12.4434
▁prevail	-12.4434
▁payoff	-12.4434
▁Canadian	-12.4434
▁1930	-12.4434
▁scatter	-12.4435
▁abnormal	-12.4435
▁exceed	-12.4435
▁reversal	-12.4435
▁rediscover	-12.4435
▁lawyer	-12.4435
▁redesign	-12.4435
▁transit	-12.4435
▁generous	-12.4436
▁embed	-12.4436
▁configuration	-12.4436
▁cathedral	-12.4436
ilgrim	-12.4437
▁Engineer	-12.4437
▁brief	-12.4437
▁whisper	-12.4438
▁demonstration	-12.4438
▁Plot	-12.4438
84	-12.4438
▁submer	-12.4439
▁assess	-12.444
▁Eight	-12.444
▁administrator	-12.444
▁admitted	-12.444
▁dodge	-12.4441
Donald	-12.4442
▁resell	-12.4443
▁extension	-12.4443
▁Christian	-12.4444
ronic	-12.4444
▁Speak	-12.4445
logger	-12.4445
▁photographic	-12.4445
▁galler	-12.4445
▁surgeon	-12.4445
▁pipe	-12.4447
▁reproductive	-12.4448
▁midnight	-12.4448
▁innovator	-12.4449
▁Apart	-12.4449
▁recommendation	-12.4451
▁distress	-12.4451
ja	-12.4452
▁yarn	-12.4452
▁breast	-12.4453
▁UN	-12.4453
▁Allow	-12.4454
▁flock	-12.4455
15	-12.4456
▁proceeding	-12.4456
▁oppress	-12.4457
▁Job	-12.4458
▁grip	-12.4458
▁slippe	-12.4458
▁elder	-12.4458
▁hallway	-12.4459
▁catastrophe	-12.4459
▁repeal	-12.4459
▁Snap	-12.4461
▁leather	-12.4463
▁Cụ	-12.4465
▁contactor	-12.4468
▁blink	-12.4469
▁cooperat	-12.4469
▁Sub	-12.447
▁loyal	-12.4473
▁Nav	-12.4474
sibilit	-12.4474
▁scheme	-12.4474
▁ri	-12.4477
▁generator	-12.4478
wa	-12.4478
▁demo	-12.4478
▁calculation	-12.4479
▁await	-12.448
▁porn	-12.4483
rize	-12.4484
▁thrust	-12.4486
cognition	-12.4487
▁glow	-12.449
ncivil	-12.4491
space	-12.4491
matic	-12.4492
▁flop	-12.4493
akes	-12.4493
ighs	-12.4494
▁groom	-12.4494
▁participator	-12.4494
▁replie	-12.4494
▁Ital	-12.4495
▁survivor	-12.4496
xic	-12.4496
▁heavi	-12.4498
▁metha	-12.4499
▁Satur	-12.45
▁mor	-12.4503
▁rul	-12.4503
▁discriminat	-12.4506
▁fab	-12.4507
▁airport	-12.4511
rical	-12.4516
▁tension	-12.4516
▁brake	-12.4523
▁Abb	-12.4525
essa	-12.4527
▁declin	-12.453
▁cri	-12.4533
onia	-12.4534
củ	-12.4535
dren	-12.4536
▁hello	-12.454
▁Sho	-12.4541
efense	-12.4543
▁polite	-12.4547
▁gentlem	-12.4547
▁advocate	-12.4549
zal	-12.455
ced	-12.4552
▁shocking	-12.4555
▁lord	-12.4555
eem	-12.4556
▁donut	-12.4559
▁descend	-12.4562
▁sandal	-12.4562
sure	-12.4563
▁blam	-12.4565
▁resident	-12.4568
▁capab	-12.457
▁eno	-12.4572
nnovation	-12.4574
app	-12.4576
▁jamm	-12.4577
▁graves	-12.4585
▁strict	-12.4587
▁swim	-12.4588
▁pillar	-12.4589
▁arise	-12.4589
▁Ever	-12.4591
▁humbl	-12.46
▁simplif	-12.4606
agne	-12.4606
▁sancti	-12.4607
▁ring	-12.4608
▁robber	-12.4611
alloon	-12.4612
▁Head	-12.4613
▁fond	-12.4615
etter	-12.4616
▁rejecti	-12.4616
▁dude	-12.4618
▁concert	-12.462
▁improv	-12.462
logical	-12.4624
▁murderer	-12.463
▁Russian	-12.4635
▁feminin	-12.4635
▁Sound	-12.4636
▁3,5	-12.4637
▁guest	-12.464
▁immigra	-12.464
▁gathering	-12.4648
▁champ	-12.465
▁Kab	-12.4651
▁constraint	-12.4657
izar	-12.4659
lon	-12.4662
▁spill	-12.4664
saic	-12.4665
▁multiply	-12.4666
▁Hung	-12.4666
▁physiolog	-12.4672
▁silent	-12.4677
▁Ara	-12.4678
▁jar	-12.468
▁cartogra	-12.4683
▁trọn	-12.4685
▁Camp	-12.4687
▁Marine	-12.4689
▁locker	-12.4691
Key	-12.4692
▁2,5	-12.4693
▁impress	-12.4694
▁Ali	-12.4697
sippi	-12.4701
des	-12.4706
▁badge	-12.4708
oplas	-12.4709
▁moist	-12.471
▁Boo	-12.4715
quir	-12.4715
▁Carte	-12.4724
▁sheet	-12.4724
▁smarte	-12.4725
▁Wil	-12.4728
▁Carbon	-12.473
▁Má	-12.4731
arcel	-12.4736
▁stink	-12.4739
mento	-12.4739
▁Fe	-12.4745
▁span	-12.4747
▁clo	-12.4748
▁producti	-12.4756
▁TH	-12.4773
▁chê	-12.4777
▁twin	-12.478
▁activis	-12.4783
rctic	-12.4786
▁graphic	-12.4791
người	-12.4794
▁trappe	-12.4795
▁heck	-12.4796
paran	-12.4797
sale	-12.4808
▁cast	-12.4819
tz	-12.4821
▁kiss	-12.4825
mburg	-12.4827
▁plain	-12.4837
love	-12.4838
▁taxe	-12.4841
bb	-12.4849
int	-12.4852
verse	-12.4856
hin	-12.4863
imagin	-12.4864
▁observ	-12.4865
pent	-12.4872
▁irre	-12.4878
▁looter	-12.4879
▁wise	-12.4882
▁Bas	-12.4883
▁Thermo	-12.4888
▁predate	-12.4892
ặn	-12.4894
earing	-12.4894
ush	-12.49
hroom	-12.4902
▁tăm	-12.4905
vely	-12.4906
▁nghẹ	-12.4911
▁bureaucrat	-12.4919
▁reassur	-12.492
▁strap	-12.4924
▁endure	-12.4926
▁centi	-12.4927
▁nè	-12.4931
rds	-12.4947
▁mask	-12.495
▁Shu	-12.4952
sing	-12.496
dman	-12.4963
▁glu	-12.4966
duction	-12.4975
▁alter	-12.4977
▁Cour	-12.4983
▁pursui	-12.499
▁bư	-12.4999
iodivers	-12.5007
bal	-12.5012
▁chồn	-12.5019
▁dare	-12.502
▁guard	-12.5022
▁Prin	-12.5028
▁tempora	-12.5039
ấ	-12.5046
ades	-12.5048
arb	-12.5049
cast	-12.5061
bou	-12.5063
▁arrange	-12.5073
▁reshape	-12.508
tty	-12.5083
gett	-12.5087
ama	-12.5091
▁rán	-12.5092
▁flexib	-12.51
▁spike	-12.5102
▁Gala	-12.5102
▁indig	-12.5103
▁Web	-12.5104
pse	-12.5116
▁Christi	-12.5119
sas	-12.5121
▁Ag	-12.513
bureaucrat	-12.5133
aker	-12.5141
▁studi	-12.5148
▁slum	-12.5148
▁finishe	-12.5155
▁Ram	-12.5162
▁rầ	-12.5164
▁char	-12.5165
▁Pear	-12.5168
▁nhi	-12.5171
▁Sort	-12.5174
rms	-12.5178
adding	-12.5183
▁nhử	-12.5186
rangutan	-12.519
▁Scienti	-12.5193
▁Rose	-12.5194
▁Hoả	-12.52
▁spi	-12.5203
▁Ten	-12.5206
▁temporar	-12.522
▁sorr	-12.5221
:	-12.5223
▁wealthie	-12.5223
▁Nor	-12.5224
92	-12.5225
▁vital	-12.5229
ệm	-12.5233
▁Pap	-12.5242
reme	-12.5246
town	-12.5256
▁Stat	-12.5256
▁Berk	-12.5261
▁gaze	-12.5268
?	-12.5269
lumin	-12.5275
▁shade	-12.5283
NF	-12.5291
rocket	-12.5291
này	-12.5296
▁reli	-12.5296
ti	-12.5304
qu	-12.5306
iple	-12.5322
ellow	-12.5323
hường	-12.5336
▁expirat	-12.5342
▁eradicate	-12.5343
did	-12.5356
ện	-12.536
ces	-12.536
ack	-12.5365
▁Wi	-12.5366
dding	-12.5376
unit	-12.5376
▁gan	-12.5376
▁mìn	-12.5384
▁scann	-12.5385
▁Mat	-12.5413
▁Gar	-12.5415
rrow	-12.5416
treat	-12.5423
ys	-12.5428
▁visualize	-12.543
▁magnifi	-12.5435
▁assistan	-12.544
▁cọ	-12.5446
bone	-12.5472
▁suôn	-12.5474
olar	-12.5477
▁91	-12.5479
was	-12.5481
▁mate	-12.5493
▁Dec	-12.5495
ens	-12.5497
▁legislati	-12.5503
icious	-12.551
▁Rah	-12.5516
▁thro	-12.5522
run	-12.5522
45	-12.5523
▁Gr	-12.5531
ếc	-12.5535
iable	-12.5539
ireless	-12.5541
▁Vie	-12.5541
tor	-12.5541
▁advertis	-12.5544
rett	-12.5547
beria	-12.5554
ếm	-12.557
nea	-12.5571
▁Jum	-12.5572
▁educate	-12.5573
▁Creativ	-12.5575
▁appar	-12.5579
dominant	-12.5581
etal	-12.5587
▁Sp	-12.5602
ler	-12.5612
ộc	-12.5613
oãn	-12.5619
▁bark	-12.5626
works	-12.5627
▁q	-12.5647
▁divergen	-12.5657
onne	-12.5671
▁hydro	-12.5675
▁parti	-12.5681
▁6.	-12.5681
tumbl	-12.5693
▁candles	-12.5694
cking	-12.5698
▁legislat	-12.5705
course	-12.5712
can	-12.5712
▁divid	-12.5713
shol	-12.5729
▁violat	-12.5732
▁Call	-12.5734
▁assemble	-12.574
system	-12.5746
ub	-12.5749
low	-12.5749
▁Mill	-12.575
unt	-12.575
▁partial	-12.5761
alari	-12.5767
▁Borde	-12.5769
▁Ge	-12.5772
ore	-12.5774
▁Mot	-12.578
respectful	-12.5781
ex	-12.5781
▁monk	-12.5787
▁experimental	-12.5787
wel	-12.5789
02	-12.5793
▁trans	-12.5799
▁Ar	-12.581
aste	-12.5816
▁lov	-12.5823
▁Mad	-12.5824
▁Compan	-12.5829
àn	-12.5835
▁phồn	-12.584
▁dậ	-12.5842
▁Phili	-12.5846
▁Far	-12.585
▁wou	-12.5852
▁Kid	-12.5852
technolog	-12.5854
▁trô	-12.5857
▁spina	-12.5859
▁orchestrate	-12.586
▁shap	-12.5861
nes	-12.5868
▁dependenc	-12.587
vi	-12.587
ax	-12.5876
▁warn	-12.588
▁càn	-12.5881
hẹn	-12.5888
▁replicate	-12.5889
stat	-12.589
▁logistic	-12.5892
▁org	-12.5901
▁stabili	-12.5909
▁def	-12.5914
▁discret	-12.5918
▁cardi	-12.5918
solation	-12.5918
▁Sus	-12.592
▁yo	-12.5935
▁invade	-12.5936
▁bac	-12.5943
ooks	-12.5948
18	-12.595
lic	-12.5951
native	-12.5952
erlus	-12.5955
▁smok	-12.5968
perm	-12.5968
▁manufacture	-12.5981
▁tour	-12.5983
▁Free	-12.599
▁dec	-12.5993
▁uncle	-12.5997
▁lau	-12.5998
▁GC	-12.5999
▁Neu	-12.6007
▁transcend	-12.6015
▁recycl	-12.6023
▁supervis	-12.6024
▁Đa	-12.6026
recurs	-12.6031
polis	-12.6041
▁thổ	-12.6047
▁Savi	-12.6048
▁literat	-12.6058
▁expir	-12.607
▁assum	-12.6081
ides	-12.609
▁bùn	-12.6092
cept	-12.6093
▁highl	-12.6095
ven	-12.6097
▁soc	-12.6108
eated	-12.612
epend	-12.6125
olog	-12.6128
▁nà	-12.6129
▁nàn	-12.6131
▁côn	-12.6132
▁biase	-12.6136
ught	-12.6139
▁ensur	-12.6143
worth	-12.6145
bạn	-12.6145
▁defin	-12.6155
▁attendan	-12.6157
▁53	-12.6158
▁announc	-12.6159
▁smoke	-12.616
gas	-12.6176
▁author	-12.6192
pace	-12.6195
▁cẩ	-12.6204
▁swi	-12.6207
requenc	-12.621
68	-12.6213
90	-12.6215
huôn	-12.6216
▁Đôn	-12.6219
▁whale	-12.6232
acket	-12.624
▁accumulat	-12.625
▁lă	-12.6264
▁persever	-12.6265
tell	-12.6265
▁gán	-12.6267
▁appl	-12.6267
friend	-12.6279
▁wrestle	-12.6291
roton	-12.6292
ario	-12.6296
▁precis	-12.6297
▁Ham	-12.63
os	-12.6307
▁Pad	-12.6309
▁winds	-12.631
loud	-12.6311
▁Tree	-12.6322
▁vaccinate	-12.6326
grade	-12.6331
▁Walt	-12.6332
teacher	-12.6337
▁tó	-12.6337
score	-12.6344
crime	-12.6349
▁overt	-12.6356
writer	-12.6358
▁Tri	-12.6358
cute	-12.6371
BOT	-12.6371
mann	-12.6372
rate	-12.6374
ig	-12.6375
still	-12.6378
▁illuminat	-12.6385
www	-12.6385
phre	-12.6386
evolution	-12.6389
▁CD	-12.6393
▁regenerati	-12.6397
▁anesthesiolog	-12.6399
▁ac	-12.6402
▁lụ	-12.6404
▁Famil	-12.6404
bie	-12.6406
SM	-12.6407
▁log	-12.6413
happ	-12.6416
sight	-12.6422
▁Woo	-12.6422
▁nhẽ	-12.6424
▁jo	-12.6428
▁critic	-12.6432
TV	-12.6432
ckles	-12.6439
▁Brigh	-12.6445
▁Mc	-12.6447
▁Dan	-12.6447
MA	-12.6449
▁syn	-12.6456
▁Gra	-12.6484
▁verb	-12.6487
▁Mother	-12.6487
hì	-12.6498
conventional	-12.6499
▁Giữ	-12.65
▁Fel	-12.6501
▁focuse	-12.651
ails	-12.651
▁displace	-12.6511
▁fl	-12.6514
lib	-12.6515
▁0,	-12.6515
▁similarit	-12.6523
▁impli	-12.6532
zz	-12.6532
oo	-12.6535
▁seque	-12.6545
hủ	-12.6548
ugger	-12.6548
▁aw	-12.6554
school	-12.6555
▁west	-12.6559
cession	-12.6573
▁semi	-12.6574
▁vố	-12.6582
▁hypothe	-12.6593
▁spy	-12.6608
▁yard	-12.6618
▁celebrati	-12.6618
strate	-12.6618
▁perceiv	-12.6625
▁sphere	-12.6629
inancial	-12.663
▁gram	-12.6635
▁radi	-12.6637
▁Ke	-12.6642
▁goat	-12.6644
nar	-12.6665
▁4.	-12.6666
▁hacke	-12.6671
oise	-12.6686
▁190	-12.669
sky	-12.6698
▁pale	-12.6708
▁inspecti	-12.671
▁ours	-12.6711
▁impressi	-12.6711
hav	-12.6717
thi	-12.6719
▁Day	-12.6719
▁38	-12.6723
▁Terri	-12.6727
▁stee	-12.6728
▁mechanic	-12.673
gày	-12.6733
▁Ven	-12.6736
▁Pra	-12.6738
rous	-12.676
▁rebel	-12.6761
▁Final	-12.6772
ador	-12.6774
▁cò	-12.6775
sense	-12.6777
▁deepe	-12.6785
rộn	-12.6787
▁lip	-12.6798
▁rank	-12.68
▁loneli	-12.68
▁flee	-12.6801
▁microscop	-12.6802
▁Rem	-12.6803
ential	-12.6805
mination	-12.6815
▁wri	-12.6829
▁thẳ	-12.6837
▁swap	-12.6841
▁crow	-12.6846
ccording	-12.6848
▁communi	-12.6849
▁combin	-12.685
▁stimul	-12.6852
▁Vi	-12.6858
▁Map	-12.6865
▁sneak	-12.6888
▁overwhelm	-12.6891
▁exaggerat	-12.6891
arcoma	-12.6892
▁neurosurge	-12.6898
▁testi	-12.6899
▁Blo	-12.6899
▁Qui	-12.69
▁evening	-12.6903
▁influen	-12.6907
franchise	-12.6908
▁6000	-12.691
▁Abdul	-12.6915
▁disturb	-12.6928
ARPA	-12.6928
▁cru	-12.6929
▁accura	-12.693
▁Afri	-12.693
▁desp	-12.6931
▁susceptib	-12.6931
ย	-12.6931
่	-12.6931
Ờ	-12.6931
Ứ	-12.6931
▁Alaveteli	-12.6931
▁Anthropocen	-12.6931
▁BĐKH	-12.6931
▁Juarez	-12.6931
▁Lumpur	-12.6931
▁Madonna	-12.6931
▁Photoshop	-12.6931
▁Ramanujan	-12.6931
▁Routemaster	-12.6931
▁Skecher	-12.6931
▁TEDMED	-12.6931
▁TEDxUSC	-12.6931
▁Ukraine	-12.6931
▁assassin	-12.6931
▁correspond	-12.6931
▁corridor	-12.6931
▁crippl	-12.6931
▁escalope	-12.6931
▁excruciating	-12.6931
▁helicopter	-12.6931
▁intertwine	-12.6931
▁juxtaposition	-12.6931
▁melatonin	-12.6931
▁nucleotide	-12.6931
▁pandemic	-12.6931
▁portfolio	-12.6931
▁portrait	-12.6931
▁translucen	-12.6931
▁ĐTDĐ	-12.6931
▁อร	-12.6931
▁Napoleon	-12.6931
▁evident	-12.6931
▁maxim	-12.6931
▁rainforest	-12.6931
▁anesthetize	-12.6931
▁assault	-12.6931
▁caregiver	-12.6931
▁dessert	-12.6931
▁dysfunction	-12.6931
▁misperception	-12.6931
▁tornado	-12.6931
▁undergraduate	-12.6931
▁unpredictabl	-12.6931
▁hackathon	-12.6931
▁laptop	-12.6931
▁reconcil	-12.6931
▁schematic	-12.6931
▁obtain	-12.6931
▁accrue	-12.6931
▁arrogan	-12.6931
▁malfunction	-12.6931
▁depict	-12.6931
▁frighten	-12.6931
▁subscribe	-12.6931
▁Apatzi	-12.6931
▁McDonald	-12.6931
▁redundan	-12.6931
▁description	-12.6931
▁disadvantage	-12.6931
▁gossip	-12.6931
▁obsole	-12.6931
▁Simpson	-12.6931
▁exclusive	-12.6931
▁summarize	-12.6931
▁scroll	-12.6931
▁Bokon	-12.6931
▁betroth	-12.6931
▁spawn	-12.6931
▁glorious	-12.6931
▁nightmare	-12.6931
▁prominen	-12.6931
▁multitask	-12.6931
▁imperfect	-12.6931
▁remorse	-12.6931
▁billboard	-12.6931
▁postcard	-12.6931
▁Spock	-12.6931
▁Common	-12.6931
▁ISS	-12.6931
▁dissolve	-12.6931
▁rupee	-12.6931
▁jerk	-12.6931
▁Qatar	-12.6931
▁Bjor	-12.6931
▁avatar	-12.6931
▁haplo	-12.6931
▁filmmaker	-12.6931
▁reconstruct	-12.6931
▁fierce	-12.6931
▁kimono	-12.6931
▁bucket	-12.6931
▁download	-12.6931
▁imaginative	-12.6931
▁orthodox	-12.6931
▁garment	-12.6931
▁pie	-12.6931
▁gorilla	-12.6931
▁Rosemar	-12.6931
hhhh	-12.6931
▁mixture	-12.6931
llion	-12.6931
▁brainwave	-12.6931
▁smash	-12.6931
▁casket	-12.6932
▁Anatom	-12.6932
▁insect	-12.6932
▁prosecut	-12.6932
▁signature	-12.6932
▁devour	-12.6932
▁skew	-12.6932
▁Nokia	-12.6932
▁responsive	-12.6932
▁ventilat	-12.6932
▁Dream	-12.6932
▁expedition	-12.6932
▁Rwand	-12.6932
▁upload	-12.6932
▁intimate	-12.6932
disproportionate	-12.6933
▁holistic	-12.6933
▁Raja	-12.6933
▁Roger	-12.6933
▁peripheral	-12.6933
▁regard	-12.6933
▁suspend	-12.6933
▁passenger	-12.6933
▁newsprint	-12.6933
▁Krug	-12.6933
▁Kidman	-12.6933
▁Artist	-12.6933
▁2040	-12.6933
▁XY	-12.6933
▁reclaim	-12.6933
▁fisherm	-12.6934
▁dispossess	-12.6934
▁commerc	-12.6934
▁discard	-12.6934
▁empowerment	-12.6934
▁intuition	-12.6934
▁1830	-12.6934
▁concentrator	-12.6935
▁1955	-12.6935
▁dissection	-12.6935
▁Parent	-12.6935
▁hallucination	-12.6935
▁disagreement	-12.6935
▁thorough	-12.6935
▁uncover	-12.6935
▁Bhab	-12.6935
▁refrigerator	-12.6935
TE	-12.6936
uppet	-12.6936
▁conjure	-12.6936
▁Flori	-12.6936
▁instinctive	-12.6936
▁shrink	-12.6937
aged	-12.6937
▁xenophil	-12.6937
▁cartel	-12.6937
ssential	-12.6937
▁cyborg	-12.6938
▁Often	-12.6938
▁Blue	-12.6938
▁Strange	-12.6938
▁ASD	-12.6938
▁guru	-12.6939
▁collaborator	-12.694
RC	-12.694
▁pedal	-12.694
▁isolation	-12.694
▁Levi	-12.6941
OL	-12.6941
▁indication	-12.6941
▁witnesse	-12.6942
▁creep	-12.6942
▁Linked	-12.6942
▁trăn	-12.6943
▁mutual	-12.6943
▁processe	-12.6943
▁grassland	-12.6944
▁Michel	-12.6944
▁biologist	-12.6944
▁assign	-12.6944
▁embar	-12.6945
▁iteration	-12.6945
▁Gov	-12.6945
▁anomal	-12.6946
▁globaliz	-12.6946
▁combat	-12.6946
▁athlete	-12.6946
RP	-12.6946
▁accusation	-12.6947
▁hetero	-12.6947
▁Hunt	-12.6948
▁resonator	-12.6949
▁selective	-12.6949
▁periodic	-12.6949
▁highlight	-12.695
▁115	-12.6951
▁circula	-12.6951
illage	-12.6951
▁Back	-12.6951
▁export	-12.6951
▁contributor	-12.6951
▁lineage	-12.6952
▁attain	-12.6953
▁Hacker	-12.6953
▁Amir	-12.6953
▁contractor	-12.6953
▁slip	-12.6953
▁grace	-12.6953
▁slaughter	-12.6954
▁auction	-12.6954
parag	-12.6955
▁champion	-12.6955
rtemis	-12.6955
▁curb	-12.6956
▁Taj	-12.6958
▁propan	-12.6959
▁snare	-12.696
▁bureaucra	-12.6961
ussan	-12.6961
▁wrongful	-12.6962
trium	-12.6962
▁dictate	-12.6962
▁routine	-12.6963
▁plausib	-12.6963
▁distinction	-12.6964
▁exile	-12.6964
▁LO	-12.6965
▁frustrating	-12.6965
▁humiliation	-12.6965
▁alert	-12.6966
▁skip	-12.6966
▁Block	-12.6969
▁aspiration	-12.697
hangi	-12.6971
▁recreation	-12.6972
risk	-12.6973
▁Cook	-12.6973
rash	-12.6974
▁memorial	-12.6974
▁lùn	-12.6974
▁soiree	-12.6975
▁crap	-12.6975
▁Chech	-12.6976
ibera	-12.6976
▁Aug	-12.6976
onsider	-12.6976
▁endless	-12.6976
▁Locke	-12.6977
▁nuance	-12.6978
▁5000	-12.6978
▁superstr	-12.6979
▁Colli	-12.6981
▁Liz	-12.6981
olla	-12.6981
▁proton	-12.6982
▁lips	-12.6982
▁convey	-12.6983
▁violation	-12.6984
▁Sup	-12.6984
▁flame	-12.6985
▁catastrophi	-12.6987
▁103	-12.6988
▁valley	-12.6989
▁educator	-12.6991
▁shirt	-12.6993
▁rustle	-12.6993
▁Mid	-12.6994
▁unifi	-12.6995
▁crop	-12.7
▁damn	-12.7
▁footballer	-12.7
▁atten	-12.7002
▁justifie	-12.7004
▁rộ	-12.7005
▁Edwin	-12.7007
ankle	-12.7007
▁terrifi	-12.7008
▁baffle	-12.7008
▁Farm	-12.7009
▁Lauder	-12.7012
▁Loud	-12.7013
▁coral	-12.7013
▁Countr	-12.7015
▁investi	-12.7015
▁loã	-12.7017
▁pol	-12.7018
▁graviton	-12.7018
▁pico	-12.702
▁grocer	-12.7023
ivia	-12.7025
broad	-12.7028
▁mimic	-12.7028
▁lặn	-12.7028
đã	-12.7029
▁cage	-12.703
▁amateur	-12.7031
▁parameter	-12.7033
▁modifie	-12.7033
▁Mov	-12.7036
rediction	-12.7038
▁Hill	-12.7039
▁biệ	-12.704
▁energize	-12.704
▁echo	-12.7041
ique	-12.7042
▁disk	-12.7042
banis	-12.7042
▁electora	-12.7044
▁Mil	-12.7045
▁suburb	-12.7046
▁Paleo	-12.7048
▁poem	-12.7049
▁desir	-12.7049
▁mild	-12.705
▁Kur	-12.7051
▁Rach	-12.7051
▁Patric	-12.7052
tagonist	-12.7052
▁obedien	-12.7056
▁drone	-12.7056
roid	-12.7057
▁prank	-12.706
▁insensitive	-12.706
▁Rede	-12.7061
▁Fara	-12.7062
▁Bl	-12.7062
oxin	-12.7063
▁Pilots	-12.7064
▁acid	-12.7065
liberation	-12.7067
▁incorporate	-12.7069
▁touche	-12.7072
▁Tib	-12.7072
▁lobby	-12.7074
▁Sm	-12.7075
▁pool	-12.7079
▁brown	-12.7082
▁Milit	-12.7082
ened	-12.7082
▁đồn	-12.7084
▁capitalist	-12.7085
openha	-12.7088
▁insist	-12.7089
▁Trust	-12.7092
▁insecurit	-12.7095
▁Nơ	-12.7096
▁injustice	-12.7098
▁Yor	-12.7099
ms	-12.7099
▁operator	-12.7099
▁flipp	-12.71
▁Flo	-12.7103
▁constitute	-12.7106
▁Phar	-12.7106
▁baker	-12.7106
ispla	-12.7111
▁stole	-12.7113
▁Mua	-12.7117
▁Voi	-12.7118
▁bitter	-12.7118
▁regain	-12.7121
ival	-12.7124
▁Whit	-12.7131
▁Feld	-12.7137
▁participati	-12.7138
▁Patt	-12.7141
▁Chứ	-12.7142
▁Ery	-12.7143
▁controversial	-12.7146
▁Gh	-12.7147
▁scanner	-12.7148
▁cake	-12.7149
▁fleet	-12.7153
▁Ev	-12.7153
▁boil	-12.7156
▁Jac	-12.7161
▁visc	-12.7166
mba	-12.7168
adish	-12.7168
▁creed	-12.7173
▁Maha	-12.7173
▁pixel	-12.7174
▁review	-12.7179
rez	-12.7181
▁82	-12.7182
▁archaeologi	-12.7196
▁infectio	-12.7204
▁angel	-12.7213
▁cù	-12.7217
▁Cori	-12.722
len	-12.7223
▁Goal	-12.7223
▁96	-12.7231
▁Bomb	-12.7231
▁zipp	-12.7237
▁Mean	-12.7237
brush	-12.7239
▁prima	-12.7241
▁sketche	-12.7242
▁Fall	-12.7243
▁Stu	-12.7248
scope	-12.725
lero	-12.725
laus	-12.7251
▁uh	-12.7253
▁hươ	-12.7256
ruise	-12.7257
▁sườn	-12.7258
sident	-12.7263
▁morpholog	-12.7264
idnight	-12.7269
▁sel	-12.727
▁generati	-12.7271
▁migrat	-12.728
shopp	-12.728
▁stronge	-12.7282
▁sla	-12.7287
▁processor	-12.7294
▁capitalis	-12.7296
hiểu	-12.7303
▁rù	-12.7309
▁Mach	-12.7311
found	-12.7326
akar	-12.7327
▁xị	-12.7332
elop	-12.734
▁Hen	-12.7342
fed	-12.7342
▁awaken	-12.7344
▁End	-12.735
▁imitate	-12.735
eber	-12.7359
▁sift	-12.7362
▁embrac	-12.7366
▁publication	-12.7369
▁ghe	-12.7369
estate	-12.7369
atitude	-12.737
▁Amen	-12.7372
rial	-12.7378
▁Chu	-12.7379
▁fixer	-12.7381
▁photographer	-12.7385
19	-12.7387
được	-12.7392
▁calo	-12.7393
▁Nhó	-12.7396
▁Mel	-12.7406
umar	-12.7406
▁cli	-12.7406
▁stunn	-12.741
▁adequate	-12.7412
uca	-12.7414
▁bearing	-12.7415
curate	-12.742
ache	-12.7424
rewire	-12.7434
refront	-12.7435
▁conceive	-12.7436
kin	-12.744
thể	-12.7441
anne	-12.7443
▁cán	-12.7444
▁Sai	-12.7457
istrict	-12.7463
▁torture	-12.7465
▁purchas	-12.7469
vid	-12.7473
▁coordinate	-12.7474
▁seize	-12.7476
▁Large	-12.7477
ivi	-12.7479
▁coat	-12.7479
▁manh	-12.7482
verge	-12.7485
▁Dụ	-12.7486
droom	-12.7495
▁7.	-12.75
clo	-12.75
ymph	-12.7501
pronounce	-12.7504
els	-12.7514
▁veg	-12.7517
hớp	-12.7522
anny	-12.7523
ash	-12.753
pede	-12.7533
elve	-12.7533
cial	-12.7535
slowi	-12.7537
▁mob	-12.7538
lov	-12.7541
ylan	-12.7546
▁Start	-12.7546
▁Thí	-12.7549
đó	-12.7555
CH	-12.7557
▁Joy	-12.7558
▁rap	-12.756
erf	-12.7562
easing	-12.7563
▁traffick	-12.7572
▁curren	-12.7592
▁Kara	-12.7593
▁Er	-12.7593
▁rigidit	-12.7601
▁soi	-12.7613
▁Guy	-12.7624
▁Isa	-12.7625
loy	-12.7627
▁Wor	-12.7628
renz	-12.7632
▁đồi	-12.7635
56	-12.7638
ina	-12.7639
▁prototyp	-12.7645
▁khẳ	-12.765
▁minimiz	-12.7651
genda	-12.7656
▁couch	-12.7659
▁Gen	-12.7673
▁Fun	-12.7681
▁tẩ	-12.7685
▁IP	-12.7691
▁vol	-12.7704
▁Rea	-12.7708
▁Barb	-12.7711
▁forage	-12.7719
otic	-12.7731
lations	-12.7732
▁disrupti	-12.7732
sche	-12.7738
chrom	-12.7739
▁Đị	-12.7741
▁TS	-12.7746
▁halve	-12.7751
▁racial	-12.7754
▁rộn	-12.7757
rath	-12.7762
▁Wat	-12.7764
▁blo	-12.7766
▁Inst	-12.7776
▁formula	-12.7779
▁ag	-12.7783
DI	-12.7786
▁vạ	-12.7787
▁Cự	-12.7789
ult	-12.779
▁Est	-12.7796
▁asph	-12.7797
bab	-12.7804
omes	-12.7804
▁socio	-12.7806
▁Dep	-12.7808
▁submitt	-12.7813
▁kne	-12.7814
▁Famili	-12.7823
▁funni	-12.7824
▁Tsu	-12.7831
▁replac	-12.7836
ype	-12.7841
▁Fo	-12.7843
whil	-12.7843
▁maim	-12.7872
desire	-12.7875
cation	-12.788
▁showe	-12.788
aying	-12.7893
nav	-12.7903
eryon	-12.7907
▁lat	-12.7911
▁deca	-12.7914
log	-12.7915
rk	-12.7915
ication	-12.7917
▁IM	-12.7941
▁resonat	-12.7941
▁IN	-12.7946
▁Polic	-12.795
elieve	-12.795
eeper	-12.7951
science	-12.7959
▁98	-12.7969
▁adversari	-12.7969
▁compli	-12.7971
▁penn	-12.7973
▁Che	-12.7981
▁epi	-12.7988
▁hex	-12.8005
clusive	-12.8009
▁Die	-12.8015
eographic	-12.8021
▁examin	-12.8026
▁committee	-12.8029
▁representati	-12.8036
tify	-12.8043
▁investigate	-12.8057
▁motivate	-12.8067
cam	-12.8067
▁sarcomas	-12.8068
▁accomplishe	-12.8069
▁prostitut	-12.807
▁1.	-12.8074
listic	-12.8076
▁Pal	-12.8096
cle	-12.81
▁cash	-12.8107
affe	-12.811
ợc	-12.8111
ening	-12.8113
key	-12.8127
wind	-12.8127
▁entrepreneurs	-12.813
▁Nhiệ	-12.8135
xy	-12.8137
▁purp	-12.8139
▁Band	-12.814
own	-12.8151
iza	-12.8152
tory	-12.8155
overt	-12.8156
▁min	-12.8158
▁associat	-12.816
▁Burm	-12.8161
▁coincide	-12.8161
emember	-12.8164
iagra	-12.8165
▁mere	-12.8166
▁mono	-12.8171
opy	-12.8171
▁consequent	-12.8185
▁confess	-12.8186
.1	-12.819
▁Hal	-12.8191
ise	-12.8193
▁surpris	-12.8193
▁sink	-12.8194
▁sock	-12.8197
rode	-12.8208
▁nê	-12.8212
200	-12.8216
ses	-12.8216
▁emergen	-12.8218
erber	-12.8225
oạn	-12.8228
▁orientat	-12.8232
▁erase	-12.824
▁grap	-12.8243
▁trap	-12.8252
▁obsessi	-12.8256
mster	-12.8258
.8	-12.8259
mad	-12.8264
▁judg	-12.8265
▁Kil	-12.8268
▁democratiz	-12.8269
uba	-12.8269
olite	-12.8274
lia	-12.8283
met	-12.8287
▁rail	-12.8287
▁Dil	-12.8288
▁chick	-12.8292
▁pitt	-12.8293
▁barb	-12.8302
▁contribut	-12.8303
cin	-12.8304
ascul	-12.8308
▁geo	-12.8309
aby	-12.8311
▁Oc	-12.8312
▁Brai	-12.8324
▁Kes	-12.8331
▁rau	-12.8332
▁Studie	-12.8339
như	-12.8349
▁rotati	-12.8353
▁tur	-12.8358
▁ramp	-12.8363
▁Jai	-12.8368
▁vở	-12.8372
don	-12.8374
▁chase	-12.8378
▁marginal	-12.8385
▁Ell	-12.8386
▁irr	-12.8391
▁Natur	-12.8392
▁Alex	-12.8395
▁tre	-12.8399
ept	-12.8401
ks	-12.8402
▁congress	-12.8402
▁manipulate	-12.8405
▁á	-12.8405
uous	-12.841
▁FD	-12.8413
gus	-12.8415
▁hydr	-12.8417
teel	-12.8418
▁nề	-12.8444
efl	-12.8453
gratu	-12.8455
▁industri	-12.8456
quit	-12.8464
lming	-12.8464
zh	-12.8466
▁IV	-12.8466
ín	-12.8468
▁devo	-12.8472
▁nạt	-12.8475
▁modul	-12.8475
xcept	-12.8476
zzy	-12.8477
▁standardiz	-12.8482
▁vặ	-12.8483
▁dancer	-12.8484
▁trac	-12.8492
tux	-12.8497
▁đớ	-12.8501
▁ethic	-12.8502
nais	-12.8508
dar	-12.8509
▁compari	-12.8516
phy	-12.8518
▁Stand	-12.8524
▁rational	-12.8527
obar	-12.853
hả	-12.8535
▁Mahat	-12.8535
ged	-12.8542
wear	-12.8559
▁187	-12.8586
▁tản	-12.859
avers	-12.8603
uệ	-12.8604
ots	-12.8605
erial	-12.8615
▁nhá	-12.8616
retched	-12.8619
▁pond	-12.8624
▁disclose	-12.8629
▁pal	-12.863
▁Lov	-12.8632
▁rever	-12.8633
▁ngợ	-12.8646
earl	-12.8646
▁intens	-12.865
arch	-12.8661
eak	-12.8661
▁deci	-12.8666
▁thốn	-12.8667
▁punc	-12.8669
▁prais	-12.8673
▁bull	-12.8675
turn	-12.8679
▁separat	-12.8679
▁yell	-12.8682
07	-12.8685
ES	-12.8688
▁visualiz	-12.8693
▁Pit	-12.8697
hờ	-12.87
▁yea	-12.872
▁ơ	-12.8724
reasur	-12.8725
otte	-12.8734
▁owe	-12.8737
▁sanita	-12.8746
▁comp	-12.8759
tire	-12.8764
alization	-12.8769
▁Hous	-12.8781
▁subtracti	-12.8782
▁merc	-12.8786
▁insulati	-12.8798
ips	-12.8815
▁Sing	-12.8815
▁troll	-12.8816
ime	-12.8816
onkey	-12.8822
iku	-12.8834
▁wrappe	-12.8837
easure	-12.8839
▁nationalis	-12.8849
▁connecti	-12.8851
dru	-12.8853
,3	-12.8861
▁via	-12.8878
oking	-12.8879
▁recess	-12.888
▁Hoạ	-12.8882
fer	-12.8889
watt	-12.8894
▁nố	-12.8904
tation	-12.891
itle	-12.8914
off	-12.8922
acle	-12.8927
▁má	-12.8931
▁sens	-12.8933
▁localit	-12.8937
being	-12.8938
▁characterize	-12.895
▁bina	-12.8953
bes	-12.8954
▁prov	-12.8956
▁rotate	-12.8964
▁posts	-12.897
▁wipe	-12.898
▁Tố	-12.8983
tal	-12.8995
▁desirab	-12.9001
▁approv	-12.9017
▁Bỏ	-12.9031
▁Sah	-12.9031
drew	-12.9032
▁reti	-12.9037
▁misunderst	-12.9042
▁commit	-12.9042
pa	-12.9054
▁Bil	-12.9063
25	-12.9065
ills	-12.9074
race	-12.9075
rene	-12.9075
times	-12.9081
▁packe	-12.9082
▁northe	-12.9089
▁gạ	-12.909
wick	-12.9091
▁Natura	-12.9096
▁tap	-12.91
mo	-12.9113
ming	-12.9123
lation	-12.9144
▁stimulat	-12.9146
urved	-12.9147
▁overse	-12.9149
▁Hippo	-12.9154
hoá	-12.9164
omed	-12.9166
ibi	-12.917
▁issu	-12.917
▁Gor	-12.9173
▁complian	-12.9175
▁tide	-12.9177
▁Va	-12.918
illa	-12.9189
telli	-12.9189
rack	-12.9191
▁emit	-12.9192
▁GE	-12.9199
▁tod	-12.9217
▁Exc	-12.922
oscope	-12.9225
▁shore	-12.9225
enome	-12.9231
▁giàn	-12.9231
▁numer	-12.9233
▁Nề	-12.9239
▁attend	-12.9241
sland	-12.9252
▁item	-12.9261
▁Nà	-12.9267
ration	-12.9272
erberg	-12.9272
các	-12.9272
tô	-12.9273
▁pains	-12.9291
▁Hex	-12.9291
amp	-12.9295
valen	-12.9295
▁vượn	-12.9299
urse	-12.9299
planet	-12.9304
▁avia	-12.9306
▁worke	-12.9307
▁mentors	-12.9308
ain	-12.9309
vice	-12.9313
▁cub	-12.9316
▁shin	-12.935
▁inflate	-12.9355
ẳn	-12.9361
Ga	-12.9376
▁quyê	-12.9382
▁marinate	-12.9383
bly	-12.9391
050	-12.9394
▁Pur	-12.9398
▁Earl	-12.9403
▁Linn	-12.9404
hib	-12.9405
iction	-12.9408
sibl	-12.941
▁insert	-12.9412
economic	-12.9412
▁Swi	-12.942
eith	-12.9423
▁Kill	-12.9427
violet	-12.9427
▁pos	-12.9433
▁Pana	-12.9435
drive	-12.9437
▁conform	-12.9437
itz	-12.9445
▁hairs	-12.9446
ộ	-12.9447
▁Poli	-12.9478
▁Coli	-12.9487
▁Chế	-12.9492
▁pine	-12.9501
lette	-12.9513
shot	-12.9515
▁quali	-12.9518
litera	-12.9547
ene	-12.955
augh	-12.9558
heads	-12.956
▁inher	-12.9561
▁separati	-12.9563
▁glut	-12.957
▁robb	-12.9572
necessar	-12.9577
record	-12.9609
pp	-12.9614
▁gừng	-12.9616
▁Care	-12.9617
pression	-12.9619
94	-12.9631
screen	-12.9633
direct	-12.9637
part	-12.9637
▁Bậ	-12.964
nam	-12.964
▁thùng	-12.9641
▁gentl	-12.9656
▁vế	-12.9657
▁doom	-12.9658
▁Hoà	-12.9667
ssim	-12.9676
▁Thầ	-12.9679
uppose	-12.9685
ệu	-12.9687
▁reproduc	-12.969
▁muố	-12.969
▁inhal	-12.9694
religious	-12.9701
▁gai	-12.9702
layer	-12.9705
not	-12.9709
estimate	-12.9711
▁affordab	-12.9714
▁discoveri	-12.9715
tage	-12.9716
gon	-12.9719
▁adapti	-12.9725
900	-12.9725
▁Bab	-12.9727
hiếm	-12.9728
▁constructi	-12.9729
▁Norw	-12.973
nutritio	-12.973
▁emba	-12.9733
▁Ele	-12.9737
ular	-12.974
▁ừ	-12.9756
gender	-12.9757
into	-12.9764
▁gate	-12.9766
fire	-12.9771
potent	-12.9773
PO	-12.9773
▁grad	-12.9775
▁Mass	-12.9777
▁nghì	-12.9791
urden	-12.9796
▁Sand	-12.9799
anger	-12.9803
hu	-12.9806
mitted	-12.9811
arlie	-12.9811
uron	-12.9812
▁developmental	-12.9814
polar	-12.9819
▁Poll	-12.9823
▁communicati	-12.9827
urban	-12.983
tes	-12.9833
▁phenomena	-12.9837
esav	-12.9838
pho	-12.984
rank	-12.9843
▁sketch	-12.9848
jo	-12.9849
eedless	-12.985
▁anticipati	-12.9861
▁lure	-12.9868
▁execut	-12.987
list	-12.9896
ou	-12.9904
▁financi	-12.9907
▁Dâ	-12.9907
olk	-12.992
▁Mô	-12.9922
tarian	-12.9934
▁Silv	-12.9936
rbi	-12.9937
▁Test	-12.9947
ison	-12.9953
▁Sim	-12.9954
▁xướ	-12.996
▁2.	-12.998
sane	-12.9987
▁sw	-12.9993
And	-12.9993
▁femini	-12.9997
▁absen	-13.0004
vin	-13.0007
▁caps	-13.0008
bow	-13.0008
▁automo	-13.0012
▁compel	-13.0033
▁heel	-13.0042
stage	-13.0043
▁Glob	-13.0052
tivi	-13.0052
stock	-13.0054
▁classif	-13.0054
▁junk	-13.0058
▁Democra	-13.0058
▁Te	-13.0062
mon	-13.0072
▁Cố	-13.0073
ẹn	-13.0075
▁pla	-13.0077
▁thiệ	-13.0082
▁Pilot	-13.0086
▁journalis	-13.0092
▁escap	-13.0097
erend	-13.0103
sa	-13.0106
pie	-13.0107
netic	-13.0115
rus	-13.012
rmal	-13.0124
▁đu	-13.013
gbo	-13.0146
▁significan	-13.015
▁thread	-13.015
ov	-13.0151
▁rạn	-13.0165
▁repurpos	-13.0166
patient	-13.0176
▁marina	-13.0179
linear	-13.0179
▁teenage	-13.0179
rtificial	-13.0182
vantage	-13.0186
▁presum	-13.0187
▁rỗ	-13.0192
▁bể	-13.0195
▁popul	-13.0199
▁khă	-13.02
▁Ale	-13.02
ath	-13.0207
ickel	-13.0209
▁wiki	-13.0209
entro	-13.0211
▁nhiê	-13.0211
arrator	-13.0215
▁watche	-13.0216
▁crate	-13.0217
▁trê	-13.022
imilar	-13.0224
▁thriv	-13.0225
▁Spi	-13.0226
▁demon	-13.0226
▁reader	-13.0232
ruce	-13.0236
emorial	-13.0237
▁flex	-13.0237
ycorrhiza	-13.0238
▁8000	-13.024
urricane	-13.0245
▁transgress	-13.0246
▁contradict	-13.0247
▁compute	-13.0248
rish	-13.0249
▁exhibit	-13.0251
▁Cit	-13.0253
▁neutr	-13.0253
▁Republic	-13.0257
shrin	-13.0258
▁utopia	-13.0259
▁descen	-13.0259
▁implicat	-13.026
seas	-13.0261
igital	-13.0261
▁harass	-13.0263
▁scrutin	-13.0264
*	-13.0264
Ă	-13.0264
▁BlackBerr	-13.0264
▁EMT	-13.0264
▁IPaidABribe	-13.0264
▁Mesopotamia	-13.0264
▁Origin	-13.0264
▁Service	-13.0264
▁Tralfamador	-13.0264
▁ambucycle	-13.0264
▁defibrillator	-13.0264
▁dinosaur	-13.0264
▁disillusion	-13.0264
▁doorknob	-13.0264
▁emphasize	-13.0264
▁exhilarat	-13.0264
▁incarcerate	-13.0264
▁livelihood	-13.0264
▁locomotive	-13.0264
▁nostalgi	-13.0264
▁privilege	-13.0264
▁refurbish	-13.0264
▁reorientate	-13.0264
▁savannah	-13.0264
▁sprinkle	-13.0264
▁subsequent	-13.0264
▁Ắ	-13.0264
uckleberr	-13.0264
▁Intelligen	-13.0264
▁surrender	-13.0264
ustralopithec	-13.0264
▁irreversibl	-13.0264
▁jewel	-13.0264
▁opponent	-13.0264
▁sovereign	-13.0264
paleoanthropolog	-13.0264
▁Perfect	-13.0264
▁basketball	-13.0264
▁brainstorm	-13.0264
▁contraption	-13.0264
▁emperor	-13.0264
▁ingenious	-13.0264
▁Survey	-13.0264
▁artifact	-13.0264
▁cyberattack	-13.0264
▁proliferat	-13.0264
▁biochemical	-13.0264
▁portray	-13.0264
▁apologize	-13.0264
▁cigarette	-13.0264
▁condemn	-13.0264
▁invasion	-13.0264
▁pacemaker	-13.0264
▁pellet	-13.0264
▁submarine	-13.0264
▁astounding	-13.0264
▁clutter	-13.0264
▁larva	-13.0264
▁neuroscientist	-13.0264
▁unpack	-13.0264
▁synthesize	-13.0264
▁wordscape	-13.0264
▁modify	-13.0264
▁oligo	-13.0264
▁EEG	-13.0264
▁explosive	-13.0264
▁Govern	-13.0264
▁Interesting	-13.0264
▁prompt	-13.0264
▁mislead	-13.0264
laborate	-13.0264
▁chronological	-13.0264
▁forensic	-13.0264
▁footstep	-13.0264
▁immerse	-13.0264
▁editorial	-13.0264
▁ooze	-13.0264
▁hydrogen	-13.0264
▁grandparent	-13.0264
▁escort	-13.0265
▁gallop	-13.0265
▁screenshot	-13.0265
▁marvel	-13.0265
▁Biological	-13.0265
▁unravel	-13.0265
▁LGBTQ	-13.0265
▁darling	-13.0265
▁genital	-13.0265
▁hominid	-13.0265
▁discern	-13.0265
▁compulsive	-13.0265
▁royal	-13.0265
▁espresso	-13.0265
▁typewriter	-13.0265
▁Climate	-13.0265
▁virtuoso	-13.0265
▁provoke	-13.0265
lla	-13.0265
▁plague	-13.0265
▁redeem	-13.0265
▁Model	-13.0265
▁Hyper	-13.0265
▁waitress	-13.0265
▁phobia	-13.0265
▁harassment	-13.0265
▁Detector	-13.0265
▁excuse	-13.0265
▁proactive	-13.0265
▁Austria	-13.0265
▁heartbreak	-13.0266
▁chapter	-13.0266
▁substanti	-13.0266
▁Honor	-13.0266
▁rectang	-13.0266
▁mosque	-13.0266
▁underpin	-13.0266
▁McClu	-13.0266
▁chaotic	-13.0266
▁lanyard	-13.0266
▁pervert	-13.0266
▁tattoo	-13.0266
▁monster	-13.0266
▁1,7	-13.0266
▁Explor	-13.0266
▁youthful	-13.0267
▁commuter	-13.0267
▁dazzl	-13.0267
NYT	-13.0267
▁interval	-13.0267
▁peaceful	-13.0267
▁deployment	-13.0267
▁editor	-13.0267
▁pledge	-13.0267
▁archive	-13.0267
flinch	-13.0267
▁philosophical	-13.0268
▁emanate	-13.0268
▁gloom	-13.0268
▁Serge	-13.0268
▁1,6	-13.0268
▁withdraw	-13.0268
▁Classic	-13.0268
▁cluster	-13.0269
▁Student	-13.0269
▁delight	-13.0269
▁1987	-13.0269
▁bypass	-13.027
▁soulful	-13.027
raliz	-13.027
▁centimet	-13.027
▁idol	-13.027
▁earring	-13.027
▁encouragement	-13.027
▁Fleisch	-13.027
▁soulless	-13.0271
▁monoton	-13.0271
▁nurtur	-13.0271
▁unfold	-13.0271
▁vaccination	-13.0271
▁turbo	-13.0271
▁defeat	-13.0271
▁absence	-13.0272
▁obligation	-13.0272
▁Machine	-13.0273
▁inscription	-13.0273
▁ascend	-13.0273
uel	-13.0274
▁misconce	-13.0274
▁ribbon	-13.0275
▁Viol	-13.0275
controllabl	-13.0275
▁verif	-13.0275
▁vẹ	-13.0275
▁Sixth	-13.0275
▁ghost	-13.0275
▁persua	-13.0275
ccup	-13.0277
▁Greek	-13.0277
▁catalogu	-13.0277
▁hesita	-13.0278
▁glacier	-13.0278
rows	-13.0278
▁participat	-13.0278
▁spoon	-13.0278
▁wield	-13.0278
▁ripp	-13.0278
▁swarm	-13.0279
▁Religion	-13.0279
▁sol	-13.0279
▁unob	-13.0279
▁vegeta	-13.0279
▁Connect	-13.028
▁audition	-13.028
▁suppose	-13.0281
▁Compare	-13.0282
▁hurricane	-13.0283
▁manifestation	-13.0284
▁overhear	-13.0284
▁gẫ	-13.0284
▁hymen	-13.0285
▁CAT	-13.0285
▁Portic	-13.0286
▁password	-13.0286
▁FM	-13.0286
whi	-13.0286
▁tractor	-13.0287
▁tinker	-13.0288
▁PF	-13.0289
▁hardwood	-13.0289
▁smog	-13.0289
▁requirement	-13.0289
▁Musk	-13.029
ufti	-13.029
▁whistleblower	-13.029
▁bookshel	-13.0291
▁cavit	-13.0291
ali	-13.0293
▁carnival	-13.0293
▁inventive	-13.0294
▁joking	-13.0294
▁consultanc	-13.0295
▁haunt	-13.0295
▁Watch	-13.0296
mi	-13.0297
scrape	-13.0298
▁classifi	-13.0298
▁fertiliz	-13.03
▁Consumer	-13.0301
▁penetrat	-13.0301
▁overlook	-13.0301
▁crowdsourc	-13.0301
▁antler	-13.0302
tail	-13.0302
institutionalize	-13.0303
▁Fur	-13.0303
▁Building	-13.0304
▁cheese	-13.0305
▁installation	-13.0305
▁alliance	-13.0306
▁stripp	-13.0306
▁extensi	-13.0307
▁bedtime	-13.0309
▁brass	-13.0309
▁frown	-13.0312
▁propel	-13.0312
▁eject	-13.0312
clair	-13.0313
▁don	-13.0314
▁Lự	-13.0317
pecial	-13.0319
▁exaggerate	-13.0319
stine	-13.0319
▁geographic	-13.032
▁Siren	-13.032
▁Hodg	-13.032
▁crapp	-13.0323
▁landline	-13.0326
▁bandw	-13.0326
oogle	-13.0328
▁shatter	-13.0328
▁confirm	-13.033
▁palm	-13.0332
▁boot	-13.0333
imes	-13.0336
▁synchroniz	-13.0337
▁applaud	-13.0338
llow	-13.034
▁twenty	-13.034
ouncil	-13.0341
▁coca	-13.0343
▁overheat	-13.0345
▁brick	-13.0347
▁Moder	-13.0348
▁migration	-13.0349
▁Terroris	-13.0349
▁tweak	-13.0351
▁latter	-13.0352
nic	-13.0353
▁gầ	-13.0353
▁loa	-13.0356
▁wrongdoing	-13.0356
▁burst	-13.0357
▁snap	-13.0357
aken	-13.0358
▁magn	-13.0362
▁Dã	-13.0364
▁muff	-13.0365
▁intolera	-13.0368
▁Help	-13.0369
▁digest	-13.0371
▁quantifie	-13.0372
organism	-13.0372
▁bounce	-13.0374
▁blogger	-13.0374
▁Billion	-13.0375
▁monstro	-13.0377
pora	-13.0377
▁genealogi	-13.038
▁sy	-13.0382
▁haul	-13.0387
▁Break	-13.0387
▁squir	-13.0387
▁scalp	-13.0388
▁tongue	-13.0393
icin	-13.0394
▁excavate	-13.0395
▁Pod	-13.0396
▁commander	-13.0396
▁swapp	-13.0397
▁SIM	-13.0401
▁envelope	-13.0401
▁preca	-13.0401
▁degrad	-13.0403
▁gẫy	-13.0405
▁Naz	-13.0405
▁enthusiastic	-13.0405
▁rampag	-13.0406
ombi	-13.0408
roi	-13.041
▁utiliz	-13.0414
rational	-13.0417
▁expend	-13.0419
▁melt	-13.042
finite	-13.0423
ometer	-13.0425
▁spa	-13.0428
▁bother	-13.0429
▁cooker	-13.043
▁famine	-13.0433
cific	-13.0434
▁pinch	-13.0435
▁Spo	-13.0435
ẫ	-13.0436
▁irrita	-13.0439
▁Desc	-13.0447
▁plugg	-13.0452
▁sur	-13.0453
play	-13.0455
▁bench	-13.0459
roblem	-13.0459
há	-13.0462
▁chunk	-13.0462
▁Fir	-13.0463
▁Mis	-13.0465
rger	-13.0466
▁Tu	-13.0469
▁undergo	-13.0471
▁identifi	-13.0476
▁unpai	-13.0481
efficient	-13.0484
▁Hư	-13.0488
▁gyr	-13.0494
enth	-13.0498
▁advisor	-13.0503
math	-13.0504
neral	-13.0505
▁transmissi	-13.0508
▁beam	-13.051
▁balm	-13.0512
heart	-13.0516
eague	-13.0516
che	-13.0522
▁crankin	-13.0527
▁repl	-13.0528
▁72	-13.053
edicine	-13.0532
▁beeper	-13.0535
▁formulate	-13.0537
▁PR	-13.0538
▁Lá	-13.0539
▁dispos	-13.0539
av	-13.0545
▁mili	-13.0546
ue	-13.0547
▁trậ	-13.0557
▁occupie	-13.0564
chi	-13.0567
lub	-13.0576
▁ố	-13.0578
▁coerc	-13.0581
▁institute	-13.0586
wing	-13.0586
disciplinar	-13.0587
ests	-13.0591
▁noble	-13.0591
▁pri	-13.0598
▁exten	-13.0599
▁plur	-13.0599
troop	-13.0601
rine	-13.0611
▁drift	-13.0612
▁logg	-13.0612
▁accompan	-13.0613
▁bur	-13.0613
▁hexa	-13.0621
▁Democrac	-13.0622
ishop	-13.0629
▁protecti	-13.0632
rtles	-13.0633
▁input	-13.0634
▁Syrian	-13.0637
▁insult	-13.0638
▁Doe	-13.0638
▁principal	-13.064
▁Persi	-13.0642
angle	-13.0642
ters	-13.0646
ndustrial	-13.0658
▁minimal	-13.0661
ogic	-13.0664
▁psycho	-13.0665
▁prescrib	-13.0669
hất	-13.0671
peration	-13.0671
▁Letter	-13.0672
with	-13.0675
▁interspe	-13.0679
▁enforcer	-13.0679
▁induc	-13.0689
▁transcript	-13.07
▁humiliat	-13.07
▁blur	-13.0705
▁lẫm	-13.071
▁compet	-13.072
▁undermine	-13.072
▁pill	-13.0721
pecul	-13.0721
▁cock	-13.0726
▁medi	-13.0727
98	-13.0729
ixie	-13.073
▁surg	-13.0755
▁Olive	-13.0756
oái	-13.0756
▁Chap	-13.0758
▁testif	-13.076
▁Indi	-13.0761
▁lands	-13.0762
▁Loà	-13.0769
remor	-13.0774
▁potent	-13.0775
400	-13.0781
ample	-13.079
cies	-13.0792
aneous	-13.0804
tel	-13.0807
ompany	-13.0807
▁Kell	-13.0808
▁bổn	-13.081
alco	-13.081
▁steer	-13.0812
hiễm	-13.0814
▁Twentie	-13.082
fir	-13.0824
abul	-13.0825
▁nutritio	-13.0828
▁Eg	-13.083
▁dwell	-13.0835
28	-13.0835
▁diverg	-13.0835
▁stray	-13.0842
▁Lea	-13.0851
operation	-13.0852
judic	-13.0852
gains	-13.0854
▁ou	-13.0875
▁cler	-13.0876
▁compensate	-13.0878
▁constitutional	-13.088
▁tan	-13.0885
▁categorize	-13.0887
▁meditati	-13.089
nol	-13.0893
▁quỳ	-13.0894
You	-13.0896
▁Fra	-13.0902
▁prox	-13.0903
▁voca	-13.0913
nguish	-13.0917
▁hoan	-13.0922
▁tú	-13.0927
▁Mạ	-13.0935
tog	-13.0941
▁pur	-13.0944
▁pour	-13.0946
fest	-13.0955
Đ	-13.0957
ddle	-13.096
▁balanc	-13.0965
▁needle	-13.097
egaci	-13.0976
ire	-13.0981
wer	-13.0983
▁strangle	-13.0984
pes	-13.0993
▁đằ	-13.0998
▁confide	-13.1005
▁bagg	-13.1007
laughter	-13.1008
▁regenerat	-13.1011
nabi	-13.1017
▁Pil	-13.1025
▁inst	-13.1038
▁psychologi	-13.1045
▁Globaliz	-13.1051
▁Trad	-13.1056
▁Secu	-13.1058
▁summ	-13.1065
toc	-13.1072
làm	-13.1072
▁compete	-13.1086
▁marking	-13.1089
▁hover	-13.1089
▁Prim	-13.1089
hannel	-13.1089
▁receiver	-13.1097
▁zoo	-13.1097
▁banker	-13.1103
educat	-13.1105
▁inhale	-13.1108
ife	-13.1111
▁teache	-13.1111
ump	-13.112
▁divin	-13.1126
hơn	-13.1127
▁expressi	-13.1139
▁natur	-13.1147
▁kinder	-13.1148
▁hype	-13.115
test	-13.115
▁dispar	-13.1153
ackdoor	-13.1156
▁amuse	-13.1159
▁tradi	-13.1159
▁smo	-13.1165
▁Rat	-13.1166
▁Đấ	-13.1169
ubb	-13.1178
▁neural	-13.1179
▁Hả	-13.1184
car	-13.1188
eck	-13.1189
erge	-13.1195
▁Sw	-13.1198
ental	-13.1203
▁trapp	-13.1209
▁Com	-13.1226
unky	-13.1228
ratify	-13.123
▁nail	-13.123
dose	-13.1237
▁suffocate	-13.1245
▁disp	-13.1249
ange	-13.1255
odor	-13.1257
▁craftsm	-13.1268
ril	-13.127
inder	-13.1277
▁executi	-13.1278
▁Fac	-13.1278
▁tropic	-13.1279
ncy	-13.128
▁Cast	-13.1284
▁redefine	-13.1286
bine	-13.129
▁fibr	-13.1291
ote	-13.1298
▁graduati	-13.1316
ader	-13.1318
điều	-13.1322
theo	-13.1327
rbag	-13.1342
▁Jif	-13.1353
izo	-13.1354
ểm	-13.1365
aj	-13.1381
▁enhanc	-13.1383
oga	-13.1386
▁abs	-13.1387
iles	-13.1394
ternal	-13.1398
unni	-13.1404
▁Turk	-13.1405
game	-13.1406
hêm	-13.1406
lier	-13.1407
▁bro	-13.1407
▁dias	-13.1407
uzz	-13.1415
tock	-13.1417
ountry	-13.1424
▁drain	-13.1424
elli	-13.1425
ea	-13.143
▁Educat	-13.143
take	-13.1433
▁Pic	-13.1437
sign	-13.1444
▁smuggle	-13.1445
▁sen	-13.1448
reat	-13.1461
▁lone	-13.1471
▁bun	-13.1477
aja	-13.1479
lovi	-13.1482
Gr	-13.1485
alth	-13.1495
▁Massi	-13.1504
▁khốn	-13.151
▁Hipp	-13.1514
unction	-13.1523
eceive	-13.1529
wave	-13.153
arithm	-13.1533
▁navigati	-13.1536
evin	-13.1538
fensive	-13.154
res	-13.1541
▁Nguy	-13.1543
ems	-13.1544
su	-13.1552
sự	-13.1561
▁morph	-13.1562
▁neuroscien	-13.1566
avor	-13.1566
▁neo	-13.1568
▁Dis	-13.1571
▁liberati	-13.1576
station	-13.1577
tive	-13.158
▁venue	-13.1581
omet	-13.1582
hê	-13.1588
▁bless	-13.159
▁integra	-13.1595
▁Happi	-13.1596
ield	-13.1618
put	-13.1622
▁Màn	-13.1636
▁Gab	-13.1644
▁constituen	-13.1646
đ	-13.1649
lling	-13.1652
▁Op	-13.1659
▁tale	-13.1659
▁inch	-13.1662
▁negotiat	-13.1665
▁185	-13.1666
▁exhausti	-13.1667
▁corners	-13.1673
bral	-13.1695
▁Suns	-13.1697
▁populate	-13.1701
raft	-13.1707
▁fascinate	-13.1708
▁vữ	-13.1724
rief	-13.1726
▁litter	-13.1733
ition	-13.1733
▁Ox	-13.1741
▁phế	-13.1755
▁peck	-13.1758
▁Gin	-13.1759
people	-13.1759
atch	-13.1766
saving	-13.1767
▁Lã	-13.1775
▁promis	-13.1779
▁floors	-13.1787
▁Home	-13.1788
nation	-13.1799
▁Surfa	-13.1803
vention	-13.1804
▁gl	-13.1806
ruyền	-13.1809
ulf	-13.1811
him	-13.1811
BM	-13.1827
▁resemble	-13.1828
▁ears	-13.1844
van	-13.1845
▁trail	-13.1853
▁muỗ	-13.1853
▁chử	-13.1859
▁poppi	-13.1863
otice	-13.1864
arter	-13.1866
laine	-13.1871
▁tiệ	-13.1877
io	-13.1885
▁shove	-13.1885
omination	-13.189
see	-13.1898
▁pleasant	-13.1899
▁logistical	-13.1915
ibbon	-13.1927
▁wro	-13.1941
▁tutori	-13.1941
▁Lab	-13.1945
▁mourn	-13.1946
sha	-13.1957
dad	-13.1958
lum	-13.1958
▁rug	-13.197
▁freshm	-13.1977
▁outsourc	-13.198
▁Herb	-13.198
lder	-13.1981
▁ngửa	-13.1989
emo	-13.2004
alling	-13.201
cord	-13.2012
▁vá	-13.2014
▁Lớ	-13.2015
▁closet	-13.2036
mother	-13.2048
▁Yorker	-13.2066
brew	-13.2073
So	-13.2075
nami	-13.2077
vớ	-13.2079
▁plott	-13.2079
▁navigat	-13.2083
▁dich	-13.2089
link	-13.209
▁bioma	-13.2091
wi	-13.2093
▁Cooper	-13.2095
▁competi	-13.2098
▁Ab	-13.2104
65	-13.2112
▁cừ	-13.2118
▁ớ	-13.2125
quar	-13.2125
vas	-13.2136
▁impl	-13.2154
▁Pea	-13.2154
▁fiddle	-13.2171
▁Wonder	-13.2176
▁dough	-13.2178
▁bin	-13.221
arm	-13.2213
cing	-13.2219
▁hợ	-13.223
mester	-13.2233
zm	-13.2239
▁Fai	-13.2251
ase	-13.2255
▁disclos	-13.2256
ale	-13.2266
eign	-13.2269
ify	-13.2275
fl	-13.2275
different	-13.2281
moth	-13.2286
▁disse	-13.2287
ecision	-13.229
▁sc	-13.2291
▁translati	-13.2296
▁hood	-13.2302
▁disrespect	-13.2307
▁rat	-13.2314
ved	-13.2324
▁Sta	-13.2334
tu	-13.2349
▁aspire	-13.2356
eel	-13.2362
▁scanne	-13.2367
▁identi	-13.237
ace	-13.2389
irs	-13.2391
▁candle	-13.2391
▁crown	-13.2396
▁marinat	-13.2406
▁Story	-13.2406
▁BC	-13.2409
▁cơm	-13.243
rtain	-13.2432
▁recur	-13.2437
▁pleas	-13.2448
▁wrapp	-13.2449
▁Burn	-13.2453
▁sha	-13.247
bra	-13.2477
rks	-13.2479
pont	-13.2482
▁refus	-13.2483
hị	-13.2487
▁vắ	-13.2488
ycho	-13.2493
▁fighter	-13.2495
ensive	-13.2496
▁pun	-13.2499
udge	-13.2508
▁processi	-13.2512
nch	-13.2513
▁mus	-13.2524
▁bind	-13.2525
jection	-13.2528
▁suite	-13.2528
▁innovati	-13.2533
name	-13.2537
osph	-13.2538
▁aspir	-13.2542
▁Nỗ	-13.2545
vac	-13.2546
▁urgen	-13.255
stoni	-13.2551
human	-13.2559
mean	-13.256
▁devote	-13.2563
rays	-13.2567
▁App	-13.2572
▁nhăn	-13.2584
aware	-13.2586
▁buộ	-13.2587
▁flu	-13.2589
▁Bog	-13.2594
▁cracke	-13.26
▁cube	-13.2603
▁Rich	-13.2606
even	-13.2611
hục	-13.2619
kha	-13.2624
24	-13.263
sive	-13.263
▁etern	-13.2632
▁reproduce	-13.2635
beck	-13.2647
beat	-13.2652
mak	-13.2654
▁192	-13.2657
lice	-13.2661
yri	-13.2662
▁decreas	-13.2664
ru	-13.2666
▁hip	-13.2669
allow	-13.2677
hố	-13.2686
till	-13.2686
▁grave	-13.2689
▁typi	-13.2708
mà	-13.2708
▁Lò	-13.2709
▁Inside	-13.272
▁Mathematic	-13.272
ction	-13.2722
▁té	-13.2727
rudge	-13.2742
▁accelerat	-13.2757
▁203	-13.2758
▁Mind	-13.2759
conditional	-13.2766
row	-13.2776
▁fiddl	-13.2783
▁existen	-13.2784
▁reache	-13.2789
form	-13.279
agement	-13.2792
▁defi	-13.2793
gom	-13.2795
tern	-13.2797
lute	-13.2798
bu	-13.2802
▁acti	-13.2803
▁tone	-13.2803
▁lử	-13.2804
urs	-13.281
stern	-13.2819
▁thừ	-13.2825
pay	-13.2831
onstitution	-13.2835
▁existe	-13.2842
▁Pep	-13.2844
question	-13.2848
▁Moha	-13.2861
▁gra	-13.2871
▁bát	-13.2874
sent	-13.2881
pruden	-13.2884
rou	-13.2886
▁distille	-13.2892
▁divi	-13.2899
▁Age	-13.2903
▁statistical	-13.2904
▁transmitte	-13.2905
▁matche	-13.291
▁buồ	-13.2915
utz	-13.2916
▁Ung	-13.2925
ji	-13.2938
húc	-13.2942
▁compos	-13.2954
▁gon	-13.2956
▁lì	-13.2956
ngs	-13.2959
uration	-13.2964
dev	-13.2967
▁relian	-13.2977
▁evaluati	-13.2977
inter	-13.298
▁Ann	-13.2998
▁gri	-13.3004
trust	-13.3008
arine	-13.301
▁rack	-13.3016
▁worshipp	-13.3017
▁chan	-13.3023
▁invisib	-13.3025
▁sparkl	-13.3025
▁Mus	-13.3034
▁loom	-13.3036
edes	-13.3048
ids	-13.3058
mped	-13.3067
kee	-13.3078
attle	-13.3078
pi	-13.3079
▁Bee	-13.3079
civili	-13.3079
roe	-13.3083
▁Cl	-13.3088
▁pulle	-13.3098
▁Calcu	-13.3103
▁equ	-13.3107
▁technic	-13.3114
▁carri	-13.3116
▁gh	-13.3117
illings	-13.3118
ieve	-13.3125
ịn	-13.3129
po	-13.3164
▁Thir	-13.3166
bre	-13.3169
greement	-13.3192
enne	-13.3205
▁rota	-13.3206
In	-13.3213
via	-13.3216
▁Polit	-13.322
ising	-13.3225
▁pi	-13.3241
▁spokes	-13.3247
spare	-13.325
▁revi	-13.3265
▁gạc	-13.3285
▁speculate	-13.3286
usan	-13.3287
▁clu	-13.3287
▁format	-13.329
▁attribute	-13.329
▁Ave	-13.3291
▁dra	-13.3295
made	-13.3301
af	-13.3301
front	-13.3313
▁Haro	-13.3317
danger	-13.333
ươ	-13.3344
grow	-13.3352
▁Fl	-13.3357
▁AD	-13.3358
▁Sin	-13.3362
▁kiê	-13.3362
▁arc	-13.3372
▁Count	-13.3375
▁Golde	-13.3387
▁Say	-13.3391
▁blinds	-13.3396
alami	-13.3401
▁bid	-13.3409
▁reinforc	-13.3419
▁dâ	-13.3434
ask	-13.3438
▁ạ	-13.3438
▁Rev	-13.344
cyclic	-13.3441
ights	-13.3448
▁promoti	-13.3479
▁há	-13.3494
▁blacks	-13.35
47	-13.3502
uned	-13.3503
pens	-13.3507
▁damag	-13.351
▁Sơ	-13.3516
▁4.0	-13.3545
aller	-13.3545
▁commissione	-13.3549
▁tun	-13.3553
erbal	-13.3555
bles	-13.3557
▁releas	-13.356
▁complet	-13.3566
▁sé	-13.3567
▁ea	-13.3568
ọt	-13.3574
▁Za	-13.3575
port	-13.3577
▁reshap	-13.3586
▁smuggl	-13.3589
▁needles	-13.3592
▁servic	-13.3597
▁Mol	-13.361
▁amaze	-13.3613
second	-13.3615
▁isolat	-13.3625
cott	-13.3632
▁Command	-13.3634
government	-13.3637
▁correlate	-13.3641
hò	-13.3651
▁outd	-13.3653
▁fram	-13.366
▁acknowledg	-13.3662
▁Tì	-13.3664
▁hook	-13.3669
để	-13.3669
bee	-13.367
!	-13.3682
▁trứ	-13.3685
▁founder	-13.3687
poli	-13.3689
sort	-13.3696
root	-13.3719
iate	-13.3721
mbia	-13.3728
mething	-13.3731
ald	-13.3732
▁initiati	-13.3736
▁bri	-13.3744
llin	-13.3745
og	-13.3751
stable	-13.3757
▁Fli	-13.3758
▁interfere	-13.3758
orious	-13.3765
ogue	-13.3768
merica	-13.3777
just	-13.378
itness	-13.3783
▁Ari	-13.3787
▁attracti	-13.3797
▁dys	-13.3804
mines	-13.3808
vu	-13.3816
▁Doub	-13.3818
▁gộ	-13.3819
▁shell	-13.3825
hổ	-13.3828
▁toughe	-13.3829
owerful	-13.3842
khi	-13.3855
▁suspicio	-13.3856
về	-13.386
▁Fil	-13.387
▁tub	-13.3872
▁sủ	-13.3883
yện	-13.3885
icker	-13.3886
bil	-13.3889
▁expe	-13.3899
▁disconnecti	-13.39
▁optimize	-13.3901
rl	-13.3906
rug	-13.391
oint	-13.392
oả	-13.3929
ib	-13.3934
▁sensitiv	-13.3944
nó	-13.3962
pole	-13.3963
▁arrang	-13.3964
▁admir	-13.3984
sper	-13.3987
▁bedro	-13.3989
ocola	-13.3991
▁forc	-13.3993
▁hol	-13.3994
omi	-13.3994
unk	-13.3995
ễn	-13.3996
iế	-13.3996
Phon	-13.3999
▁submit	-13.4007
▁beautif	-13.4038
▁lườ	-13.4051
month	-13.4055
zo	-13.4059
gical	-13.4063
▁mixe	-13.4068
interest	-13.4076
▁transmit	-13.4077
left	-13.4079
▁chord	-13.4092
ucks	-13.4098
value	-13.411
▁graduat	-13.4116
▁fusi	-13.4117
▁infus	-13.4119
▁steppe	-13.4127
eja	-13.4127
let	-13.413
usa	-13.4131
cycl	-13.4132
▁luc	-13.4132
phe	-13.4133
▁soci	-13.4138
▁Chả	-13.4141
▁harde	-13.4143
▁tutor	-13.4146
aft	-13.4151
▁Dol	-13.4157
▁Chấ	-13.4157
ator	-13.4162
▁relax	-13.4163
▁Trai	-13.4169
uther	-13.4173
▁predic	-13.4183
oba	-13.4186
▁circl	-13.4186
▁sque	-13.4187
base	-13.4204
fare	-13.4209
speak	-13.4214
▁Ei	-13.4218
▁authors	-13.422
arning	-13.4221
▁Anders	-13.4223
safe	-13.4232
ctual	-13.4235
▁reconnect	-13.4239
▁presiden	-13.4242
gling	-13.4243
onte	-13.4243
▁matur	-13.4246
arga	-13.4249
▁hone	-13.4264
▁remov	-13.4264
discover	-13.4267
▁dip	-13.4275
political	-13.4277
rường	-13.4278
natural	-13.4278
ossibl	-13.4282
hes	-13.4284
liz	-13.4285
▁swa	-13.4286
thế	-13.4288
▁emp	-13.4296
▁unmar	-13.4299
▁frustrat	-13.4309
buil	-13.431
▁reimagin	-13.4312
▁underl	-13.4316
behavior	-13.432
99	-13.4326
▁sal	-13.4338
spect	-13.4338
▁bl	-13.4349
und	-13.4354
hứ	-13.4359
agpi	-13.4359
▁je	-13.4365
OM	-13.4369
rea	-13.4371
normal	-13.4373
vai	-13.4377
generation	-13.4381
ẫm	-13.4381
pire	-13.439
field	-13.4391
▁Quyế	-13.4393
arri	-13.4394
▁gươ	-13.4396
activit	-13.44
▁Trụ	-13.4405
huge	-13.4412
▁Salt	-13.4413
▁str	-13.442
OK	-13.4421
Gener	-13.4435
ords	-13.4439
tooth	-13.4442
▁expense	-13.4443
▁customiz	-13.4444
nya	-13.4444
olent	-13.4446
▁possib	-13.4449
▁emitt	-13.4458
▁reacti	-13.4461
block	-13.4461
▁har	-13.4466
lks	-13.4467
▁declar	-13.4473
pot	-13.4473
▁autis	-13.4478
illion	-13.4483
cosm	-13.4485
conscious	-13.4487
blood	-13.4496
ùn	-13.4504
▁Moh	-13.4505
▁hòn	-13.4505
Canad	-13.4506
▁des	-13.4507
▁presente	-13.4521
rn	-13.4522
traditional	-13.4526
affair	-13.4528
▁ax	-13.4531
virus	-13.4533
▁dọ	-13.4536
birth	-13.4542
terrorist	-13.4551
undan	-13.4555
dyar	-13.4562
▁Land	-13.4564
Link	-13.457
track	-13.4574
capture	-13.4578
▁suggesti	-13.4579
▁passi	-13.4581
perform	-13.4582
Tech	-13.4586
isco	-13.4586
flow	-13.4601
▁ridicule	-13.4605
▁Kar	-13.4605
▁telephon	-13.4609
terroris	-13.4613
Và	-13.4621
TI	-13.4623
engage	-13.4628
sentence	-13.4629
sexual	-13.4635
founder	-13.4636
medical	-13.4637
charge	-13.4641
alist	-13.4643
▁Carn	-13.4648
▁Sy	-13.4651
shift	-13.4654
appropriate	-13.4663
▁73	-13.4663
NG	-13.4665
Darwin	-13.467
scientific	-13.4671
300	-13.4672
biological	-13.4677
hold	-13.4677
continent	-13.4682
master	-13.4685
▁tire	-13.4688
join	-13.4688
▁Ree	-13.4689
uture	-13.469
ubble	-13.4691
popular	-13.4693
bling	-13.4693
Talk	-13.4698
Sort	-13.4698
witness	-13.4702
▁inf	-13.4705
▁courte	-13.471
Camp	-13.4712
▁Hạ	-13.4715
nemi	-13.4716
▁env	-13.4716
▁Sund	-13.4717
Force	-13.4719
▁menu	-13.472
chromosome	-13.4721
อ	-13.4721
+	-13.4722
drift	-13.4725
ozo	-13.4726
Penn	-13.4726
pixel	-13.4731
vious	-13.4733
introduce	-13.4735
bright	-13.4736
intuitive	-13.4736
TH	-13.4736
frequent	-13.4739
▁functional	-13.4741
32	-13.4742
industrial	-13.4746
inger	-13.4752
rden	-13.4754
▁Acc	-13.4758
winner	-13.4762
awful	-13.4764
validate	-13.4766
▁enforc	-13.4767
▁commands	-13.4769
▁rese	-13.4772
▁thà	-13.4772
locker	-13.4774
81	-13.4778
cular	-13.4779
calculate	-13.4782
▁insid	-13.4784
▁troubl	-13.4785
▁dominan	-13.4785
claim	-13.4786
▁tempo	-13.4789
bird	-13.4794
threaten	-13.48
▁subsid	-13.4804
ridge	-13.4807
▁slid	-13.4808
▁bugg	-13.4811
▁Low	-13.4813
▁Exp	-13.4825
pillar	-13.483
affect	-13.4831
ritis	-13.4836
▁refuge	-13.484
arrot	-13.4846
▁neurolog	-13.4849
Aid	-13.4851
breed	-13.4851
▁Dal	-13.4852
review	-13.4858
polluti	-13.4862
cted	-13.4864
▁cosm	-13.4867
arbor	-13.4867
sor	-13.4867
historic	-13.4871
tional	-13.4877
▁rub	-13.4879
IP	-13.488
▁battl	-13.4887
▁artis	-13.4895
bold	-13.4897
▁urge	-13.4898
crat	-13.49
36	-13.4902
▁conservati	-13.4902
▁capit	-13.4903
coni	-13.4904
wn	-13.4909
quest	-13.4915
▁patien	-13.4917
submit	-13.4922
▁activat	-13.4927
alky	-13.4929
▁preserv	-13.4932
▁Guft	-13.4937
PR	-13.4941
▁Anesthesi	-13.4944
▁insecur	-13.4946
▁sú	-13.4946
detect	-13.4963
▁recip	-13.4965
tude	-13.4966
prove	-13.4966
▁Williams	-13.4966
▁chớ	-13.4971
▁impose	-13.4972
ualize	-13.498
▁scholar	-13.4985
▁Sứ	-13.4987
ky	-13.4992
▁tele	-13.4994
lear	-13.5001
▁sci	-13.5008
▁sequenc	-13.5009
ric	-13.5011
honest	-13.5013
▁clich	-13.5015
▁stea	-13.5019
ustainabl	-13.502
.9	-13.5021
▁25.	-13.5023
gò	-13.5024
ode	-13.5025
▁Brot	-13.5026
amount	-13.503
nsertion	-13.5031
▁inaugurat	-13.5033
watch	-13.5038
cả	-13.5046
▁Gla	-13.5054
q	-13.5055
obedien	-13.5056
▁insiste	-13.5061
evolutionar	-13.5061
▁narc	-13.5064
▁negotiati	-13.5065
ddress	-13.5065
Tron	-13.5067
▁thê	-13.5067
▁acr	-13.5069
▁Mai	-13.5079
▁secre	-13.5088
▁Paci	-13.5088
▁Wrig	-13.5097
enac	-13.5104
ucky	-13.5105
cock	-13.511
rime	-13.5114
▁negativ	-13.5115
▁thưở	-13.512
erature	-13.5128
▁phu	-13.5129
▁6,	-13.5133
exe	-13.5135
brand	-13.514
▁Cent	-13.5143
▁ugli	-13.5143
▁ensu	-13.5144
seum	-13.5147
▁Mille	-13.5153
▁depre	-13.5159
regulate	-13.5159
▁chuộ	-13.5162
rắng	-13.5163
▁adora	-13.5165
ava	-13.5166
▁ươ	-13.5174
uốc	-13.5175
▁Upd	-13.5175
vation	-13.5178
win	-13.5178
itigati	-13.518
▁Tầ	-13.5183
hư	-13.5183
▁indicat	-13.5184
rojan	-13.5186
▁LA	-13.5186
▁behold	-13.5188
▁Ư	-13.5189
eld	-13.5191
elimina	-13.5191
▁proceed	-13.5191
dvocate	-13.5192
▁rebuil	-13.5192
embran	-13.5195
▁valid	-13.5196
ober	-13.5196
▁treati	-13.5196
▁Demo	-13.5196
▁Psych	-13.5201
▁plural	-13.5203
▁advers	-13.5204
ommittee	-13.5212
▁210	-13.5212
star	-13.5213
▁astonish	-13.5215
ffair	-13.5216
undra	-13.5216
lvani	-13.5217
▁khỏ	-13.5222
biz	-13.5227
▁marche	-13.5228
arnival	-13.5231
▁epidemi	-13.5231
egative	-13.5234
achine	-13.5235
▁advert	-13.5235
▁techno	-13.5235
ffice	-13.5237
▁Marin	-13.5238
ombard	-13.5238
▁electro	-13.5239
▁magni	-13.5239
▁contemp	-13.5241
hank	-13.5242
▁Nik	-13.5242
keptic	-13.5243
agazine	-13.5244
ẵn	-13.5245
Kib	-13.5245
ulture	-13.5246
blad	-13.5249
dr	-13.5249
▁oblig	-13.525
▁Aw	-13.525
▁shoot	-13.5251
hew	-13.5252
dam	-13.5252
▁proxim	-13.5253
▁Economi	-13.5254
lluminati	-13.5255
▁pra	-13.5255
ectar	-13.5256
nitiative	-13.5256
ander	-13.5257
mar	-13.5258
▁Telec	-13.526
205	-13.5261
gang	-13.5261
pidemic	-13.5262
ordinate	-13.5262
▁disast	-13.5262
▁advent	-13.5263
▁demograph	-13.5263
rogramme	-13.5263
▁chronolog	-13.5264
▁pediatric	-13.5264
▁McC	-13.5264
astrophi	-13.5264
▁Add	-13.5264
cumulati	-13.5264
▁Gapminder	-13.5264
▁Argentin	-13.5264
▁GangstaBucks	-13.5264
▁Influen	-13.5264
▁disintermediat	-13.5264
▁disorient	-13.5264
▁disregard	-13.5264
▁exquisite	-13.5264
▁obscur	-13.5264
▁superficial	-13.5264
<	-13.5264
>	-13.5264
CarbonCalculator	-13.5264
RIS	-13.5264
^	-13.5264
rrrrrr	-13.5264
symmetrical	-13.5264
terrestrial	-13.5264
~	-13.5264
×	-13.5264
ö	-13.5264
̣	-13.5264
▁AfraRaymond	-13.5264
▁Antarctic	-13.5264
▁Botswan	-13.5264
▁Caledonia	-13.5264
▁Conservative	-13.5264
▁DonorsChoose	-13.5264
▁EpiPen	-13.5264
▁Experiment	-13.5264
▁Gigahertz	-13.5264
▁Granfalloon	-13.5264
▁IDEO	-13.5264
▁Kazak	-13.5264
▁LVMH	-13.5264
▁Pachysoma	-13.5264
▁Photograph	-13.5264
▁Physician	-13.5264
▁Prajapat	-13.5264
▁Pyramid	-13.5264
▁Rousseff	-13.5264
▁SQL	-13.5264
▁UNESCO	-13.5264
▁VHF	-13.5264
▁Yamanaka	-13.5264
▁accommodation	-13.5264
▁alphabet	-13.5264
▁aristocra	-13.5264
▁astronaut	-13.5264
▁autocrac	-13.5264
▁ceramic	-13.5264
▁cobblestone	-13.5264
▁consecutive	-13.5264
▁culprit	-13.5264
▁dissertation	-13.5264
▁geriatric	-13.5264
▁glucôzơ	-13.5264
▁hallucinogen	-13.5264
▁interdict	-13.5264
▁intrigu	-13.5264
▁intrinsic	-13.5264
▁mastodon	-13.5264
▁mosquito	-13.5264
▁neglig	-13.5264
▁nephew	-13.5264
▁pivot	-13.5264
▁posterbird	-13.5264
▁predecessor	-13.5264
▁predisposition	-13.5264
▁procrastinat	-13.5264
▁quadcopter	-13.5264
▁repositor	-13.5264
▁rollercoaster	-13.5264
▁scrubb	-13.5264
▁skateboard	-13.5264
▁slingshot	-13.5264
▁stipulate	-13.5264
▁tectonic	-13.5264
▁unapologetic	-13.5264
▁unionseek	-13.5264
▁woodpecker	-13.5264
▁̉	-13.5264
rrrrrrrrr	-13.5264
▁stigmatize	-13.5264
▁Abraham	-13.5264
▁Afrocentric	-13.5264
▁ClimateCrisis	-13.5264
▁Traditional	-13.5264
▁burglar	-13.5264
▁gremlin	-13.5264
▁homosexual	-13.5264
▁schedule	-13.5264
▁scourge	-13.5264
▁sprawl	-13.5264
▁stratospher	-13.5264
Raymond	-13.5264
calibrate	-13.5264
▁ChildMortality	-13.5264
▁RAM	-13.5264
▁blossom	-13.5264
wrinkle	-13.5264
▁brimming	-13.5264
▁grasshopper	-13.5264
▁metaboli	-13.5264
▁thermoregulat	-13.5264
▁drawtoast	-13.5264
▁fingerclip	-13.5264
▁ponytail	-13.5264
▁Communication	-13.5264
▁TCN	-13.5264
▁nipple	-13.5264
▁pendant	-13.5264
▁Cruel	-13.5264
▁Transport	-13.5264
▁affiliat	-13.5264
▁hibernati	-13.5264
▁nanobot	-13.5264
▁necessitate	-13.5264
▁bonobo	-13.5264
▁hobby	-13.5264
▁Albani	-13.5264
▁exempt	-13.5264
▁surfboard	-13.5264
▁Placebo	-13.5264
▁delusion	-13.5264
▁fracture	-13.5264
▁FISA	-13.5264
▁antenna	-13.5264
▁custodian	-13.5264
▁subtitle	-13.5264
▁inflict	-13.5264
▁Server	-13.5264
▁prescription	-13.5264
▁surpass	-13.5264
▁cliché	-13.5264
▁empirical	-13.5264
▁firefight	-13.5264
▁motorcycle	-13.5264
▁Answer	-13.5264
▁captiv	-13.5264
▁transcribe	-13.5264
▁certifi	-13.5264
▁exclusion	-13.5264
▁imbib	-13.5264
diplo	-13.5264
▁sanitize	-13.5264
▁external	-13.5264
▁Dubai	-13.5264
▁garner	-13.5264
▁hypocri	-13.5264
▁millisecond	-13.5264
▁Nixon	-13.5264
▁bystander	-13.5264
▁paranoi	-13.5264
▁crawl	-13.5264
▁Commission	-13.5264
▁filament	-13.5264
▁precipitous	-13.5264
▁inferior	-13.5264
▁Enzyme	-13.5265
gagagaga	-13.5265
▁presuppos	-13.5265
▁Investment	-13.5265
▁cornerstone	-13.5265
▁pediatrician	-13.5265
ARP	-13.5265
▁skyrocket	-13.5265
▁Kickstarte	-13.5265
▁punctuat	-13.5265
▁carpet	-13.5265
▁warrior	-13.5265
▁enigma	-13.5265
▁oncologist	-13.5265
▁Babylon	-13.5265
▁misspell	-13.5265
▁ignite	-13.5265
▁multitude	-13.5265
▁flourish	-13.5265
▁ROV	-13.5265
▁censor	-13.5265
▁Emerg	-13.5265
▁defensive	-13.5265
▁orgasm	-13.5265
▁blindfold	-13.5265
▁comedian	-13.5265
▁PAX	-13.5265
▁Report	-13.5265
▁hermetic	-13.5265
▁PDA	-13.5265
▁blissful	-13.5265
▁predominant	-13.5265
▁Banff	-13.5265
▁sublim	-13.5265
▁humming	-13.5265
▁Animal	-13.5265
▁entitlement	-13.5265
▁dispute	-13.5265
▁160	-13.5265
▁Wiper	-13.5265
▁clutch	-13.5265
cephal	-13.5265
▁rhino	-13.5265
▁relocate	-13.5266
▁Stadium	-13.5266
▁Jersey	-13.5266
▁boardroom	-13.5266
▁devalu	-13.5266
▁pirate	-13.5266
▁revitaliz	-13.5266
▁dictator	-13.5266
CP	-13.5266
▁landmass	-13.5266
▁jcc	-13.5266
▁bliss	-13.5266
agogue	-13.5266
▁conquer	-13.5266
▁Atari	-13.5266
▁hazard	-13.5266
▁hysterical	-13.5266
▁Libya	-13.5267
▁Certain	-13.5267
▁Shock	-13.5267
▁superior	-13.5267
▁deriv	-13.5267
▁cõ	-13.5267
▁Karasse	-13.5267
▁cubic	-13.5267
▁Astair	-13.5267
▁actress	-13.5267
▁Athenian	-13.5267
RE	-13.5267
▁2500	-13.5267
▁skeleton	-13.5267
▁siphon	-13.5267
▁refresh	-13.5268
▁exclu	-13.5268
▁Shinto	-13.5268
▁retard	-13.5268
▁Vengeance	-13.5268
▁weaponize	-13.5268
▁690	-13.5268
▁superstar	-13.5268
▁pluck	-13.5268
▁jungle	-13.5269
▁Finish	-13.5269
▁waterproof	-13.5269
▁flirt	-13.5269
ussian	-13.5269
▁JCC	-13.5269
orbid	-13.5269
▁capsule	-13.5269
▁macro	-13.5269
▁handcraft	-13.527
▁atheis	-13.527
▁lubric	-13.527
tomac	-13.527
▁vault	-13.527
mmediate	-13.527
▁patron	-13.527
▁818	-13.527
▁Astro	-13.5271
▁Return	-13.5271
▁undergrad	-13.5271
▁grasp	-13.5271
▁roaring	-13.5271
▁inscribe	-13.5272
▁fitte	-13.5272
▁flour	-13.5272
▁whistle	-13.5273
▁faithful	-13.5273
▁Enter	-13.5273
▁525	-13.5273
▁impart	-13.5273
▁reframe	-13.5273
▁embass	-13.5273
▁constrict	-13.5274
jour	-13.5274
▁widen	-13.5274
▁Victoria	-13.5274
▁hostage	-13.5274
▁stresse	-13.5274
RA	-13.5275
ethicist	-13.5275
▁retrain	-13.5275
▁Ignor	-13.5276
proximate	-13.5276
▁IIT	-13.5276
thletic	-13.5276
▁vanish	-13.5277
▁Goul	-13.5277
▁nonviolen	-13.5278
urologist	-13.5278
▁outcast	-13.5278
▁reiterate	-13.5278
mobilize	-13.5278
skill	-13.5278
▁nhiễ	-13.5278
▁1850	-13.5279
▁incub	-13.5279
▁Metro	-13.5279
▁deliberation	-13.5279
▁commandment	-13.528
▁14.9	-13.528
▁novelist	-13.528
▁touris	-13.528
▁Patients	-13.528
▁Ganes	-13.5281
▁juris	-13.5281
▁decoration	-13.5281
furi	-13.5281
chromato	-13.5281
▁1920	-13.5282
49	-13.5282
▁spo	-13.5282
▁Sign	-13.5282
▁geneticist	-13.5283
▁compile	-13.5283
▁shipment	-13.5283
▁byproduct	-13.5283
▁glaz	-13.5283
▁mon	-13.5284
▁circum	-13.5284
▁progen	-13.5284
▁Feyman	-13.5285
▁definitive	-13.5285
▁Parag	-13.5285
▁divisive	-13.5285
▁exhibiti	-13.5285
▁charisma	-13.5287
▁massage	-13.5287
▁intima	-13.5288
enzy	-13.5289
▁Hux	-13.529
▁cohesi	-13.5291
▁Monstro	-13.5291
7,29	-13.5292
▁amendment	-13.5292
▁microbe	-13.5293
▁Solutions	-13.5293
garet	-13.5294
▁transgression	-13.5294
▁ripple	-13.5295
▁anatomist	-13.5295
▁cheek	-13.5295
▁genealogist	-13.5296
▁iPad	-13.5296
owboy	-13.5296
▁permeat	-13.5297
▁videograph	-13.5297
▁bbn	-13.5297
▁decisive	-13.5297
repared	-13.5297
fina	-13.5298
▁Additional	-13.5298
▁Blackbe	-13.5299
▁indefinite	-13.5299
▁lever	-13.5299
lusive	-13.5299
▁Abdulla	-13.53
egna	-13.53
▁Niger	-13.5301
▁furious	-13.5302
▁illustrator	-13.5302
mbass	-13.5303
960	-13.5303
▁Chèn	-13.5304
▁stoic	-13.5305
▁supercomput	-13.5305
▁resign	-13.5305
▁wreck	-13.5306
▁innate	-13.5307
▁Equ	-13.5307
▁lexic	-13.5307
SR	-13.5308
9,6	-13.5308
ontrol	-13.5309
▁409	-13.531
▁nitrat	-13.531
▁landmine	-13.5311
▁exha	-13.5311
▁wandering	-13.5312
▁astonishing	-13.5313
▁heroic	-13.5315
enfranchise	-13.5316
▁wrench	-13.5316
▁superstition	-13.5317
▁exponential	-13.5317
▁extinction	-13.5318
▁takeoff	-13.5318
▁Scribbl	-13.5319
▁humid	-13.532
▁auditor	-13.532
▁dogma	-13.5321
▁strip	-13.5321
▁drill	-13.5322
portion	-13.5323
▁surf	-13.5323
▁specifi	-13.5323
los	-13.5323
▁bombard	-13.5324
ourish	-13.5324
▁beneficia	-13.5325
elegan	-13.5326
▁culminat	-13.5327
▁anthr	-13.5332
▁pluralis	-13.5332
inlan	-13.5333
arco	-13.5335
▁tall	-13.5337
petitive	-13.5339
▁detaine	-13.534
▁domesticate	-13.534
▁Meso	-13.534
▁curs	-13.5341
▁amplify	-13.5342
▁symbolics	-13.5344
▁casin	-13.5344
▁metro	-13.5345
▁toilet	-13.5345
▁mí	-13.5346
▁disruption	-13.5346
▁reef	-13.5349
▁Carb	-13.535
▁banner	-13.5351
▁infinite	-13.5352
▁Indus	-13.5353
▁lump	-13.5353
cribbl	-13.5353
▁patholog	-13.5354
▁narrator	-13.5354
putation	-13.5355
incin	-13.5357
mption	-13.5357
otta	-13.5358
▁paleo	-13.5358
opher	-13.5358
1700	-13.5359
peake	-13.536
▁Jura	-13.536
▁urina	-13.5362
▁sq	-13.5362
▁trojan	-13.5363
▁brig	-13.5363
▁matri	-13.5364
emon	-13.5364
trans	-13.5366
▁dualis	-13.5367
▁plow	-13.5368
▁outlet	-13.5368
▁bolt	-13.537
▁cremat	-13.5372
▁Communi	-13.5372
kar	-13.5373
metric	-13.5376
▁shooter	-13.5378
▁reside	-13.5379
mpani	-13.5379
▁Clevela	-13.538
▁tyran	-13.538
dwell	-13.5384
▁FI	-13.5388
▁Socrat	-13.539
▁resort	-13.539
▁supervisor	-13.539
▁IDC	-13.5393
ièu	-13.5393
▁Trans	-13.5394
▁conceptual	-13.5394
kistan	-13.5395
diction	-13.5396
▁Bakar	-13.5397
ulia	-13.5399
▁tak	-13.5399
▁rigor	-13.5408
▁Hyd	-13.541
▁inhabit	-13.5412
afel	-13.5413
unki	-13.5414
▁ambi	-13.5415
ccess	-13.5416
leine	-13.5417
moke	-13.5419
▁stir	-13.542
trustworth	-13.5424
sristi	-13.5426
▁Updat	-13.5427
xious	-13.5427
▁repurpose	-13.5428
▁Curi	-13.543
structure	-13.5431
▁xịn	-13.5432
liza	-13.5432
nnie	-13.5432
▁contaminat	-13.5435
phil	-13.5436
corp	-13.5437
▁Assu	-13.5438
▁contingen	-13.5439
▁strategist	-13.5439
▁botani	-13.544
▁riddle	-13.5442
▁peek	-13.5444
aragraph	-13.5451
lapse	-13.5452
▁rethink	-13.5454
▁incur	-13.5454
▁inconsistenc	-13.5457
▁Pre	-13.5457
▁sheath	-13.546
▁tourist	-13.5462
ollo	-13.5464
gừng	-13.5466
▁nhó	-13.5468
▁extremis	-13.5469
▁embryo	-13.5473
asser	-13.5473
▁migrati	-13.5474
ailor	-13.5477
▁104	-13.5477
▁adj	-13.5477
ghout	-13.5484
▁utopian	-13.5485
▁reinvigorat	-13.5486
wab	-13.5487
ilian	-13.5489
▁metropoli	-13.549
say	-13.549
▁candid	-13.5493
phải	-13.5493
tamina	-13.5493
▁dán	-13.5494
▁sieve	-13.5495
▁slope	-13.5496
anba	-13.5496
USC	-13.5501
tru	-13.5501
▁inaugura	-13.5503
▁phẩ	-13.5506
alk	-13.5507
jector	-13.5507
nói	-13.5512
Stra	-13.5516
▁condense	-13.5518
dventure	-13.5518
▁slee	-13.5521
▁differ	-13.553
emographic	-13.5534
▁awa	-13.5535
▁pushe	-13.5536
Civil	-13.5539
▁locat	-13.5541
▁uni	-13.5551
▁stunt	-13.5552
▁swoo	-13.5554
DT	-13.5558
ajo	-13.5558
▁humanize	-13.5559
gious	-13.5559
optic	-13.556
pend	-13.5561
▁biophysic	-13.5561
▁deta	-13.5566
▁Rous	-13.5566
▁Month	-13.5567
▁Journ	-13.5569
▁unbe	-13.5571
▁curati	-13.5575
▁callous	-13.5577
environmentalist	-13.5581
rằng	-13.5584
dwin	-13.5584
erton	-13.5585
▁bribe	-13.559
▁raci	-13.559
raja	-13.5594
▁demean	-13.5594
▁Writ	-13.5594
▁entitle	-13.5594
▁AN	-13.5595
▁Advan	-13.5596
▁budd	-13.5598
▁cott	-13.56
27	-13.5603
▁embody	-13.5605
raid	-13.5606
▁demons	-13.5606
▁mul	-13.5608
leak	-13.561
▁kilo	-13.561
▁junkie	-13.5613
▁adversit	-13.5613
▁marg	-13.5616
finishe	-13.5616
▁Lư	-13.5619
▁doll	-13.5626
lesh	-13.5627
▁mall	-13.5628
ppo	-13.5632
▁Mario	-13.5634
▁blogge	-13.5636
fe	-13.5636
mmune	-13.5638
▁kidnapper	-13.5639
▁lẽo	-13.5642
▁advi	-13.5643
▁league	-13.5645
bit	-13.5648
eflect	-13.5649
erfa	-13.565
▁minist	-13.5652
raig	-13.5652
▁Missi	-13.5657
ughes	-13.5658
▁Pola	-13.5659
▁centrifuge	-13.5662
▁undo	-13.5664
En	-13.5667
hili	-13.5671
anyon	-13.5675
erland	-13.5676
▁Sene	-13.5679
byl	-13.568
▁Suppo	-13.5686
nclusion	-13.5687
▁port	-13.5689
▁rehabilitat	-13.5689
▁planner	-13.5693
cente	-13.5694
▁inhuman	-13.5696
▁lươ	-13.5696
waken	-13.5698
valu	-13.5703
herent	-13.5706
▁herds	-13.5713
▁freak	-13.5722
scalo	-13.5722
dine	-13.5732
axo	-13.5742
cell	-13.5746
▁exp	-13.5747
▁mandat	-13.5748
athon	-13.5748
▁Plann	-13.5749
▁technologist	-13.575
quare	-13.5759
▁fal	-13.5761
ulge	-13.5761
▁rebell	-13.5768
imari	-13.5771
▁Near	-13.5773
▁regulati	-13.5782
▁retr	-13.5786
▁hoist	-13.5792
▁luyến	-13.5794
▁sạc	-13.5795
▁ắ	-13.5798
perh	-13.5799
▁chari	-13.5801
Me	-13.5801
urb	-13.5802
rocy	-13.5803
▁establishe	-13.5803
▁rendering	-13.5808
rative	-13.581
rnae	-13.5811
vor	-13.5812
DE	-13.5812
▁patri	-13.5815
87	-13.5817
▁bene	-13.5818
ecriminalize	-13.5819
inea	-13.5823
ucker	-13.5827
▁guesse	-13.5827
shi	-13.5828
▁drums	-13.5829
▁Brin	-13.5832
hă	-13.5836
idman	-13.5836
▁victor	-13.5836
thri	-13.5837
▁อ	-13.5837
▁homo	-13.5839
▁revers	-13.5841
▁referr	-13.5842
▁poli	-13.5844
scale	-13.5852
developer	-13.5856
▁numbing	-13.586
cuộc	-13.5862
lept	-13.5864
itte	-13.5865
▁Join	-13.5866
▁outage	-13.5866
▁atrocit	-13.5866
kene	-13.5866
arty	-13.5868
rè	-13.5869
mentaliz	-13.587
rox	-13.5872
▁senti	-13.5875
▁investigat	-13.5876
olici	-13.5882
rocess	-13.5885
▁Anti	-13.5887
▁prose	-13.5908
▁Kos	-13.5912
▁leafle	-13.5917
▁bomber	-13.5928
pon	-13.5929
▁bullie	-13.593
▁View	-13.5931
ippi	-13.5931
▁Grant	-13.5932
ylon	-13.5932
artes	-13.5935
asso	-13.5935
▁blend	-13.5936
▁thằn	-13.5937
rover	-13.5937
▁viol	-13.5946
▁kil	-13.5948
▁motive	-13.5949
ccountab	-13.5949
▁spear	-13.595
▁chees	-13.5953
▁speciali	-13.5954
▁regi	-13.5957
▁Zuc	-13.5958
ntegr	-13.5962
mont	-13.5965
life	-13.5978
▁poop	-13.5982
rano	-13.5982
▁feat	-13.5985
lios	-13.5985
change	-13.5985
▁humani	-13.5985
▁Alberta	-13.5991
▁galva	-13.5992
▁Inter	-13.5994
▁doorway	-13.5998
▁invok	-13.6003
hòng	-13.6005
▁diner	-13.6009
kim	-13.6012
▁automate	-13.6013
▁TP	-13.6016
illin	-13.6017
uccess	-13.6024
size	-13.6031
▁Up	-13.6033
dale	-13.6035
▁additi	-13.6043
nica	-13.6049
alt	-13.6051
▁slu	-13.6055
rog	-13.6056
nerg	-13.6061
▁deconstruct	-13.6066
▁ballo	-13.6076
▁crater	-13.6077
orous	-13.6081
▁reserve	-13.6081
caps	-13.6089
▁MI	-13.609
ised	-13.6092
▁Lou	-13.6093
ni	-13.6096
lower	-13.6097
▁curr	-13.6104
dah	-13.6107
huật	-13.6111
rking	-13.6123
erno	-13.6126
rty	-13.6127
gate	-13.6127
dehyd	-13.6129
ucc	-13.6129
▁gran	-13.6131
việc	-13.6133
▁wal	-13.6137
▁8,	-13.614
▁ec	-13.6141
▁af	-13.6142
stol	-13.6151
▁spit	-13.6154
▁paradi	-13.6155
pros	-13.6164
▁router	-13.6168
▁specializ	-13.6172
▁automati	-13.6172
▁converse	-13.6174
duct	-13.6174
comprehensi	-13.6177
nor	-13.6177
▁painte	-13.618
71	-13.6183
ilia	-13.6187
world	-13.6192
▁decepti	-13.6192
▁Hope	-13.6195
erish	-13.6196
▁Holl	-13.6201
▁discre	-13.6225
▁giặ	-13.6226
ressive	-13.6227
▁Kle	-13.6228
centric	-13.6238
▁owners	-13.6242
▁Môn	-13.6243
uffer	-13.6245
▁Complet	-13.6245
Vill	-13.6247
▁exe	-13.6248
▁Alli	-13.6251
ounge	-13.6252
oting	-13.6253
▁Stud	-13.6254
▁vacan	-13.6257
hromatograph	-13.6259
▁reintegrat	-13.6263
▁forag	-13.6267
▁vot	-13.6282
▁gig	-13.6291
▁PO	-13.6292
▁coloniz	-13.6293
xygen	-13.6295
▁displac	-13.6303
▁revis	-13.6305
iscom	-13.6307
▁reminder	-13.6311
ribu	-13.6312
icate	-13.6313
cutta	-13.6316
▁Amaz	-13.6324
otype	-13.6325
twee	-13.6326
gam	-13.6328
▁Ver	-13.6332
bject	-13.6335
dro	-13.6347
▁charg	-13.6353
spice	-13.636
▁discussi	-13.6361
mless	-13.6363
fallibl	-13.6366
phol	-13.6371
▁confla	-13.6377
▁elde	-13.6382
otanist	-13.6392
The	-13.6399
actical	-13.6416
rring	-13.6418
ched	-13.6426
robabl	-13.6438
▁capitaliz	-13.6441
▁Dev	-13.6453
▁Than	-13.6462
▁nhả	-13.6465
cks	-13.6468
hole	-13.6469
▁propp	-13.6472
▁oppos	-13.6483
úi	-13.6483
▁darke	-13.6485
pair	-13.6487
▁Foo	-13.6488
iro	-13.6493
▁shru	-13.6497
▁relaxe	-13.6503
▁Warm	-13.6509
▁console	-13.6513
▁brighte	-13.6516
ogen	-13.652
ove	-13.6525
iller	-13.6529
servation	-13.6531
▁tempt	-13.6533
▁melodi	-13.654
oor	-13.6542
artial	-13.6545
jar	-13.6547
ideo	-13.6547
practical	-13.6548
ane	-13.655
rating	-13.655
▁characteriz	-13.655
▁Eas	-13.6556
▁filing	-13.6566
ip	-13.6576
versa	-13.6578
▁2,4	-13.658
▁Joa	-13.6585
rchaeologist	-13.6588
got	-13.6592
▁dual	-13.6604
ara	-13.6604
▁Reco	-13.661
đến	-13.6615
▁Zhan	-13.6615
▁Thả	-13.6617
6.0	-13.6623
yon	-13.6638
▁www	-13.6642
▁wit	-13.6644
ww	-13.6646
Art	-13.6648
▁sequest	-13.6656
▁rout	-13.6656
▁BOT	-13.6666
oire	-13.6669
▁yours	-13.6671
▁distincti	-13.6674
▁bound	-13.668
▁Fou	-13.6683
▁allergi	-13.6694
iter	-13.6705
stic	-13.6707
jam	-13.6709
▁chiê	-13.6715
▁sả	-13.672
▁ngấ	-13.6728
▁belittl	-13.6739
yth	-13.674
isease	-13.675
hru	-13.6752
▁Imp	-13.6756
ales	-13.6757
evel	-13.6762
ickin	-13.6765
▁promot	-13.6767
▁Electron	-13.6774
▁Clea	-13.6775
ghett	-13.6783
liter	-13.6801
▁Ngọ	-13.6803
▁nan	-13.6804
ela	-13.6804
▁ev	-13.6805
bein	-13.681
mmer	-13.6825
▁bush	-13.683
lastic	-13.6838
bound	-13.6841
nds	-13.6858
earch	-13.686
arac	-13.6863
▁unif	-13.6865
▁affirm	-13.6865
▁informa	-13.6868
▁dia	-13.6876
▁conformi	-13.6881
▁tracer	-13.6888
▁rib	-13.689
▁responder	-13.6892
▁infer	-13.6899
uess	-13.6904
lt	-13.6919
▁dive	-13.692
step	-13.6928
lide	-13.6932
nati	-13.6939
▁68	-13.6949
ug	-13.6952
▁utili	-13.6955
▁inflat	-13.6955
mul	-13.6956
▁Organiz	-13.6959
▁1,27	-13.6962
▁persevere	-13.6965
▁spectro	-13.6966
▁ward	-13.6972
▁unfil	-13.698
▁chalk	-13.6981
▁infa	-13.6987
ndr	-13.699
edical	-13.6991
▁Gri	-13.6995
▁Sie	-13.6996
tte	-13.6996
▁predicti	-13.7001
▁accumulate	-13.7004
▁rada	-13.7019
▁stat	-13.703
ackle	-13.7031
ges	-13.7031
▁z	-13.7035
estation	-13.7056
▁industrializ	-13.7059
▁drap	-13.7064
▁Cro	-13.7068
olis	-13.7071
quin	-13.7072
penetra	-13.7077
hine	-13.708
▁ruồ	-13.7081
▁Tán	-13.7083
nov	-13.7092
▁senat	-13.7092
▁plumb	-13.7097
▁impo	-13.7104
▁conta	-13.7105
▁conclud	-13.7105
rlord	-13.7107
ero	-13.711
buck	-13.711
obbie	-13.7111
stance	-13.7119
▁theme	-13.712
ples	-13.712
▁compr	-13.7123
▁increas	-13.713
▁kền	-13.7131
▁sensi	-13.7133
▁phot	-13.7137
ines	-13.7144
▁Bot	-13.7145
▁browse	-13.7151
▁tick	-13.7158
▁midwi	-13.7161
▁vự	-13.7164
DN	-13.7166
lami	-13.7167
▁ID	-13.7173
▁piti	-13.7178
▁explorer	-13.7182
ivision	-13.7182
boyfriend	-13.7186
urgenc	-13.7196
▁Fet	-13.7206
▁rà	-13.7211
▁abys	-13.7215
▁liê	-13.722
▁Via	-13.722
ek	-13.7224
▁repetiti	-13.7226
▁res	-13.7227
▁glo	-13.723
tom	-13.7231
▁commenta	-13.7234
▁slay	-13.7246
▁perpetu	-13.7255
▁Send	-13.7255
iversit	-13.726
oger	-13.7272
citi	-13.7273
nhiều	-13.7276
ED	-13.7277
fel	-13.728
▁strain	-13.728
xpress	-13.729
▁inconsisten	-13.7292
topi	-13.7293
▁fet	-13.7298
parti	-13.7301
▁crowds	-13.7312
ancer	-13.7312
▁Barr	-13.7314
▁decode	-13.7335
ova	-13.7337
▁Trend	-13.7342
manth	-13.7347
▁tripp	-13.7361
▁hatche	-13.7364
ami	-13.7378
▁supple	-13.7381
onald	-13.7386
cách	-13.7396
từ	-13.7402
▁agitat	-13.744
si	-13.7442
▁Arabi	-13.7445
rac	-13.7448
ester	-13.7451
keep	-13.7454
▁inc	-13.7457
▁Scalin	-13.746
▁junct	-13.7461
cu	-13.7471
ndus	-13.7478
▁reco	-13.7481
hán	-13.7486
ign	-13.7491
▁Zo	-13.7494
▁Protect	-13.7505
▁Bola	-13.7514
▁astro	-13.7517
▁attentive	-13.7529
▁Pet	-13.7529
▁secu	-13.7543
▁appreciat	-13.7544
marker	-13.7555
▁wond	-13.7562
hoo	-13.7575
▁Rac	-13.7578
16	-13.7588
rock	-13.7591
▁dat	-13.7596
▁à	-13.7599
iland	-13.7621
ST	-13.764
▁feas	-13.7642
ains	-13.7649
▁Đà	-13.7657
▁queue	-13.7662
event	-13.7664
ariet	-13.7666
racist	-13.7672
argo	-13.7672
eaten	-13.7674
▁refin	-13.7694
este	-13.7701
▁attribut	-13.7712
▁transcende	-13.7712
osts	-13.7717
ins	-13.7717
▁thé	-13.7717
▁speculat	-13.7717
▁Ut	-13.7717
▁beep	-13.7719
wish	-13.772
hự	-13.7725
▁automat	-13.7732
▁stag	-13.7743
ocking	-13.7744
▁spra	-13.7747
hur	-13.7749
lotter	-13.7752
passion	-13.7759
mill	-13.7772
uman	-13.778
lại	-13.7783
▁lane	-13.7808
▁boo	-13.7831
▁Abs	-13.7848
▁Wel	-13.785
hiệt	-13.7854
hái	-13.7855
nish	-13.7867
ệp	-13.787
ads	-13.7877
arker	-13.7886
erious	-13.7889
▁Organ	-13.7892
reason	-13.7893
▁therapi	-13.7896
gian	-13.7917
▁manu	-13.7923
▁Medi	-13.7927
▁animate	-13.7931
Ba	-13.7931
▁Bá	-13.7942
rí	-13.7947
elo	-13.7947
hử	-13.7963
▁herb	-13.7967
ully	-13.798
▁immun	-13.7985
adulter	-13.799
arily	-13.8004
ilit	-13.8007
esign	-13.8007
ybe	-13.8007
▁talke	-13.801
monia	-13.8011
▁invad	-13.8024
epor	-13.8025
▁originate	-13.8027
khác	-13.8029
▁imitati	-13.8036
▁smalle	-13.8038
▁rust	-13.805
▁int	-13.806
sia	-13.8067
▁doin	-13.8075
▁lurk	-13.8082
▁Ang	-13.8082
ongwriter	-13.8092
công	-13.8096
▁prof	-13.8103
arder	-13.8111
ension	-13.8111
▁infiltrate	-13.8115
isplace	-13.8115
▁annihilate	-13.8115
▁reconfigure	-13.8117
▁replicat	-13.8121
▁Kho	-13.8126
▁Thá	-13.8128
ookie	-13.8133
▁spir	-13.8136
▁reporte	-13.8141
▁treasure	-13.8144
rtment	-13.8146
ariah	-13.8154
)	-13.8161
clusion	-13.8165
▁ve	-13.8181
▁explod	-13.8184
▁resonan	-13.8192
▁mist	-13.8197
thấy	-13.8199
▁tasker	-13.8206
▁evaluat	-13.8208
inding	-13.821
easur	-13.8212
coin	-13.8214
ppie	-13.8224
enaci	-13.8234
▁obe	-13.8236
lab	-13.8237
nded	-13.8237
rgus	-13.8239
▁dreamer	-13.825
▁nominat	-13.826
▁indi	-13.8261
ria	-13.8261
33	-13.8267
▁Chan	-13.8272
actual	-13.8275
▁cellul	-13.828
▁band	-13.8284
hale	-13.8287
▁Pos	-13.8294
rney	-13.8294
,5	-13.8304
▁Tai	-13.8305
oming	-13.8308
▁inserti	-13.8321
▁Bent	-13.8332
▁lik	-13.8344
eens	-13.8346
admi	-13.8368
▁supporti	-13.8369
finement	-13.8369
▁indulge	-13.837
▁gravitat	-13.8373
first	-13.8377
▁wishe	-13.8385
▁incentivize	-13.8389
▁sale	-13.8391
erative	-13.8394
byte	-13.8413
▁subtract	-13.8417
guy	-13.8424
rily	-13.8428
shal	-13.8432
zer	-13.8439
▁cab	-13.8442
▁gloss	-13.8456
▁underwa	-13.8458
tionalgeographic	-13.8463
oon	-13.8465
iva	-13.8468
pta	-13.8485
▁Ep	-13.8491
bul	-13.8502
▁gravel	-13.8502
▁reinvent	-13.8513
inos	-13.8518
▁Sym	-13.8521
hé	-13.8522
ille	-13.8527
nsider	-13.8531
▁Ray	-13.8539
custome	-13.855
nant	-13.855
▁Bro	-13.8551
mark	-13.8557
▁crav	-13.8574
aday	-13.8578
conn	-13.8592
oaster	-13.8601
abl	-13.8603
ute	-13.8605
▁eliminat	-13.8607
▁embodi	-13.8614
▁nhọ	-13.8614
gược	-13.8625
ghi	-13.8634
▁chill	-13.864
▁rì	-13.8641
fy	-13.8646
efly	-13.8652
▁authoriz	-13.8658
▁subst	-13.8661
▁forgiven	-13.8662
▁Non	-13.8673
▁prohibit	-13.8676
▁accelerati	-13.8679
span	-13.868
bian	-13.8681
tual	-13.8701
▁ditch	-13.8701
inate	-13.8705
heck	-13.8709
cố	-13.8714
enness	-13.8723
itis	-13.8734
dre	-13.8748
▁dorm	-13.8751
▁Gan	-13.8755
avst	-13.8762
elations	-13.8762
mod	-13.8773
▁orchestrat	-13.8779
ulder	-13.8788
fr	-13.8792
rail	-13.8794
▁undertak	-13.8795
▁trôn	-13.8804
▁confid	-13.881
ckr	-13.8815
▁shi	-13.8819
ummer	-13.884
▁liberate	-13.884
▁fe	-13.8842
▁appreciati	-13.8858
definite	-13.8873
▁Trạ	-13.8873
tonin	-13.8878
ndro	-13.8882
▁Bam	-13.89
▁ideation	-13.8905
gì	-13.8911
▁tứ	-13.894
grim	-13.8952
▁2,	-13.8953
▁Isla	-13.8961
nction	-13.8968
abas	-13.8972
onto	-13.8981
▁cran	-13.899
▁shine	-13.8995
▁Hou	-13.9006
▁suitab	-13.9014
ault	-13.904
▁contr	-13.9045
ebo	-13.9052
▁ste	-13.9055
▁Pain	-13.9067
erto	-13.9069
tant	-13.9072
ette	-13.9091
▁refrigerate	-13.9109
▁ní	-13.9117
uốn	-13.9128
▁refrigerat	-13.9129
▁parade	-13.9148
▁adhere	-13.9154
hore	-13.9156
ER	-13.9164
▁Chil	-13.9166
▁rạ	-13.9168
▁dee	-13.9168
thực	-13.9172
▁ob	-13.9184
rieta	-13.919
▁intr	-13.919
there	-13.9195
ora	-13.92
ster	-13.9205
▁consultati	-13.9205
icks	-13.9211
▁addi	-13.9212
▁modula	-13.9212
▁Sto	-13.9226
▁stati	-13.9232
▁fli	-13.9248
.2	-13.9255
aga	-13.9264
fli	-13.9266
llite	-13.9269
nog	-13.9284
Tô	-13.9287
umbl	-13.9304
mall	-13.9313
larges	-13.9316
▁xấ	-13.9316
▁optim	-13.9324
▁adher	-13.9327
eir	-13.9335
ett	-13.9339
▁stretche	-13.9339
anda	-13.934
▁prob	-13.9343
but	-13.935
▁occasion	-13.9352
tresse	-13.9367
ik	-13.9368
uit	-13.9379
eal	-13.9387
sava	-13.9389
▁seducti	-13.9394
wire	-13.9403
đầu	-13.9419
adwe	-13.942
umen	-13.9421
emote	-13.9425
hic	-13.9428
uilt	-13.9433
ams	-13.9436
male	-13.9437
▁Lot	-13.9442
bri	-13.9464
rma	-13.9471
▁ide	-13.9471
arge	-13.9481
▁worshippe	-13.9487
▁Ric	-13.9489
▁pala	-13.949
pers	-13.9492
ye	-13.9494
▁dợ	-13.9499
,6	-13.9504
▁Chrom	-13.9505
enz	-13.9517
▁communis	-13.9528
ipe	-13.9529
▁persisten	-13.9532
class	-13.9532
▁investigati	-13.9546
ope	-13.9549
parta	-13.9563
▁kiề	-13.9574
tep	-13.9584
atten	-13.9591
▁prohibiti	-13.9598
rừ	-13.9601
tensi	-13.9611
habili	-13.9613
lit	-13.9622
▁congressm	-13.9638
▁predictabl	-13.9647
▁torn	-13.9652
▁formulat	-13.9678
housand	-13.9681
▁referenc	-13.9683
sili	-13.9685
biết	-13.9686
itted	-13.9696
▁delic	-13.9701
titude	-13.9714
▁consol	-13.9718
▁xuâ	-13.9729
▁prep	-13.9731
▁tang	-13.9741
racker	-13.9748
iosi	-13.9754
▁estimat	-13.9754
đa	-13.9769
▁blade	-13.977
void	-13.977
▁Russ	-13.9771
▁Ore	-13.9772
ggle	-13.9773
alib	-13.9774
▁eli	-13.9785
wed	-13.9789
▁equat	-13.9797
ag	-13.9801
▁imper	-13.9809
▁Supp	-13.9817
pit	-13.9829
▁interviewe	-13.9833
▁rec	-13.9835
▁chuy	-13.9851
loma	-13.9852
chỉ	-13.9861
ayer	-13.9866
▁embodie	-13.9867
▁glossi	-13.9868
▁continui	-13.9872
aise	-13.9875
oya	-13.9886
avior	-13.9886
mong	-13.9892
▁fore	-13.9894
▁cata	-13.9899
vert	-13.9901
pulsi	-13.9902
▁applau	-13.9915
▁doubl	-13.9927
xi	-13.9929
▁indulg	-13.9943
▁intersect	-13.9944
oát	-13.9954
▁decorat	-13.9969
eb	-13.9978
batte	-13.9997
hand	-13.9998
▁mag	-13.9999
imon	-14
▁Studi	-14
essel	-14.0003
▁coinciden	-14.0033
▁scalab	-14.0034
enou	-14.0035
▁roa	-14.0041
lot	-14.0043
▁capitalize	-14.0046
ort	-14.0046
▁preci	-14.0053
▁Gas	-14.0055
rmer	-14.0066
▁uy	-14.0068
orist	-14.008
▁sanit	-14.0119
late	-14.0127
▁outsource	-14.0134
hite	-14.0134
▁defect	-14.0137
bia	-14.0138
lus	-14.0148
py	-14.0149
▁hurr	-14.0162
▁dynam	-14.0166
petition	-14.0168
ersee	-14.0192
nois	-14.0212
antle	-14.0215
thứ	-14.0231
wall	-14.0232
ister	-14.0243
▁reconfigur	-14.0244
▁annihilat	-14.0247
▁infiltrat	-14.0247
von	-14.0249
nghĩ	-14.0255
▁lust	-14.0257
vel	-14.026
tions	-14.0269
▁anim	-14.0274
▁incentiviz	-14.0286
beg	-14.0291
▁giga	-14.0298
▁regulat	-14.0322
▁Base	-14.0336
▁mills	-14.0345
imped	-14.0348
▁midw	-14.0352
▁ferv	-14.0355
tism	-14.0358
▁distracti	-14.036
▁recreat	-14.0366
cow	-14.0376
▁rotat	-14.0378
▁comb	-14.0385
▁Án	-14.0391
▁apo	-14.0401
▁hir	-14.0403
▁multipl	-14.041
▁civili	-14.0414
▁bot	-14.0418
pl	-14.042
▁ly	-14.0426
▁coloni	-14.0427
▁resembl	-14.0449
ania	-14.0451
▁economical	-14.0456
conv	-14.0471
hiế	-14.0471
Pod	-14.0481
▁mĩ	-14.0518
▁Young	-14.0531
abyte	-14.0538
trên	-14.0543
▁Pas	-14.0547
iscard	-14.0547
ount	-14.0552
▁consult	-14.0553
rigg	-14.0554
bilit	-14.0561
reach	-14.0564
▁Dẫ	-14.0565
▁treasur	-14.0567
▁quantif	-14.0574
▁scor	-14.0579
urf	-14.0583
▁gaz	-14.0588
cher	-14.0593
▁ent	-14.0598
ico	-14.0598
▁psyche	-14.0599
misu	-14.0606
▁influenc	-14.0612
dule	-14.0617
iệ	-14.0619
▁gặ	-14.0625
ơng	-14.0631
▁vac	-14.0632
▁mortal	-14.0651
▁Cat	-14.0654
cred	-14.0667
sheet	-14.0668
▁sor	-14.0674
learn	-14.0677
▁collaborati	-14.0692
othi	-14.0698
ool	-14.0703
▁mach	-14.0722
▁lightn	-14.0736
46	-14.078
atural	-14.0781
▁adversar	-14.0782
lam	-14.0782
▁Ub	-14.079
▁approache	-14.0798
elf	-14.0798
spens	-14.0809
thành	-14.0823
▁nha	-14.0828
▁sacrific	-14.0833
...	-14.0834
▁nhỡ	-14.0837
onian	-14.0839
lates	-14.0849
brain	-14.0854
▁Fran	-14.0856
inal	-14.0861
educate	-14.0861
▁dru	-14.0875
▁exercis	-14.0879
▁retro	-14.0883
rob	-14.0883
▁Egyptolog	-14.0884
ups	-14.0891
eagle	-14.0893
▁extracti	-14.0896
epic	-14.09
giv	-14.0914
▁degre	-14.092
▁5.	-14.0921
acros	-14.0924
dess	-14.0927
▁cosmo	-14.0928
mb	-14.0941
rupt	-14.0956
▁conduc	-14.0964
▁democratize	-14.0965
▁assert	-14.0972
olf	-14.0982
lish	-14.0989
ruy	-14.0996
apper	-14.1
▁summar	-14.1001
▁Atom	-14.1012
know	-14.1015
after	-14.1022
ulp	-14.1029
▁mous	-14.1043
▁gag	-14.1053
uts	-14.1056
orman	-14.1058
▁opa	-14.1063
▁editi	-14.1064
▁Bei	-14.1079
▁reo	-14.1082
▁violet	-14.1099
▁cruci	-14.1107
▁lister	-14.111
fat	-14.1121
▁manipulati	-14.1122
signi	-14.1127
train	-14.113
▁dep	-14.1144
▁intersectional	-14.1147
▁Var	-14.1155
edge	-14.1162
▁dissem	-14.1164
termination	-14.1169
đây	-14.1189
road	-14.1202
▁shr	-14.1206
▁improvi	-14.1209
shame	-14.1209
cô	-14.121
mens	-14.1215
mu	-14.1215
▁Ngo	-14.122
▁ni	-14.1222
▁pil	-14.1243
ss	-14.1245
▁supp	-14.1258
▁chuô	-14.1269
▁Constitu	-14.1269
dust	-14.1273
nces	-14.1297
riends	-14.1298
▁mobil	-14.1301
lín	-14.1301
anke	-14.131
▁decod	-14.131
eez	-14.132
▁vaca	-14.1334
estic	-14.1347
hiêu	-14.1355
▁pole	-14.1359
talk	-14.1365
▁disrupt	-14.1376
▁programme	-14.1388
fro	-14.1401
vard	-14.1402
▁perpetua	-14.1405
nào	-14.1417
inute	-14.1421
lone	-14.1435
door	-14.1451
rise	-14.1457
▁ove	-14.1459
cease	-14.1459
ducation	-14.1464
dend	-14.1482
▁monol	-14.1483
thought	-14.1524
eric	-14.1528
Chú	-14.1536
▁calculat	-14.1542
atical	-14.1556
oi	-14.1556
ollar	-14.1587
,2	-14.1602
hóm	-14.1604
▁đú	-14.1623
â	-14.1637
▁selfi	-14.1638
▁misidentifi	-14.1657
▁Tow	-14.1662
hở	-14.1673
tton	-14.1673
ntine	-14.1678
▁churn	-14.1678
▁resonate	-14.1682
quan	-14.1688
▁spik	-14.1696
▁somewh	-14.1714
resisti	-14.1715
ada	-14.1717
▁Quest	-14.1724
66	-14.1729
hẫn	-14.173
▁nả	-14.1736
▁swor	-14.1741
vì	-14.1753
▁scarie	-14.1761
experience	-14.1774
▁arteri	-14.1791
atter	-14.1792
structur	-14.1793
▁redefin	-14.1816
▁brows	-14.182
▁Py	-14.1821
▁Stay	-14.1834
▁Convention	-14.1851
lli	-14.1851
▁photographe	-14.1873
▁blu	-14.1881
▁Personal	-14.1883
erous	-14.1887
năm	-14.1897
▁pres	-14.191
▁simulat	-14.1911
▁suffocat	-14.1927
tri	-14.1928
rao	-14.1931
huấ	-14.1934
ared	-14.1937
đoán	-14.1948
▁eradicati	-14.195
ica	-14.1959
etched	-14.1959
irl	-14.1963
▁medic	-14.1967
▁underdevelop	-14.1971
▁Nổ	-14.1983
otto	-14.1988
▁intensif	-14.2007
▁affirmati	-14.2009
▁intra	-14.2009
▁mị	-14.2012
graphic	-14.2016
▁cel	-14.2031
ken	-14.2037
strong	-14.2042
ering	-14.2054
nest	-14.2062
nalys	-14.207
dollar	-14.2071
▁tail	-14.2073
▁ther	-14.2074
cost	-14.2077
alize	-14.2085
▁hatch	-14.2104
▁bent	-14.2109
peni	-14.2112
ợn	-14.2137
ram	-14.2141
▁leverag	-14.2146
▁Lor	-14.2167
lack	-14.2167
aper	-14.2175
err	-14.2179
▁hospi	-14.218
▁controvers	-14.2182
▁conserv	-14.2182
▁reassure	-14.2183
▁thâ	-14.2191
▁employe	-14.2192
tiles	-14.2209
cra	-14.221
▁Off	-14.2211
▁Tiê	-14.2213
licke	-14.2221
mô	-14.2243
wine	-14.2248
ject	-14.2249
mass	-14.2249
▁diver	-14.225
sorti	-14.2252
▁composit	-14.2254
rains	-14.2257
▁Faci	-14.2283
illing	-14.2289
ipment	-14.229
▁misse	-14.2327
▁stall	-14.2328
integrate	-14.2329
minal	-14.233
ior	-14.2332
▁allerg	-14.2339
▁conspiraci	-14.2339
▁sữ	-14.2343
▁Archaeolog	-14.2347
▁nhữ	-14.236
▁spe	-14.2364
otoni	-14.2368
▁wan	-14.2376
▁initia	-14.238
▁asso	-14.2382
chem	-14.2383
CL	-14.2386
produce	-14.2391
business	-14.2397
▁ad	-14.2406
▁cla	-14.2408
▁assembli	-14.242
agon	-14.2421
jack	-14.2427
▁Nộ	-14.2431
▁pronoun	-14.2438
▁Plan	-14.2443
cấp	-14.2446
witch	-14.2446
▁ozon	-14.2459
umpt	-14.252
American	-14.2522
▁memo	-14.2523
▁Cầ	-14.2528
racle	-14.2535
▁trồ	-14.2548
oulder	-14.2554
▁coordinat	-14.2562
lway	-14.2572
inin	-14.2572
iê	-14.2573
ock	-14.2574
yến	-14.2579
▁melod	-14.258
He	-14.2593
▁tortur	-14.2601
ean	-14.262
▁độn	-14.2624
▁seiz	-14.2635
person	-14.264
unfat	-14.2649
▁brea	-14.2652
▁endur	-14.2655
▁Char	-14.2659
▁đôn	-14.2667
pan	-14.2668
▁manipulat	-14.2669
▁activati	-14.2672
▁inadequa	-14.2681
lma	-14.2688
ruption	-14.2689
▁hằn	-14.2699
▁qual	-14.2706
gnan	-14.2708
hỏi	-14.2709
Bett	-14.2723
mine	-14.2724
▁conceiv	-14.273
▁idealis	-14.2749
▁35,	-14.2753
▁overst	-14.2756
▁hea	-14.2757
rse	-14.2776
crati	-14.2799
▁đị	-14.2815
▁var	-14.2825
▁Sen	-14.2834
▁ups	-14.284
umn	-14.2842
stair	-14.2858
53	-14.286
phon	-14.2866
▁exchang	-14.2878
raged	-14.2878
▁incl	-14.2889
▁ant	-14.2893
▁relativ	-14.2898
▁intensifi	-14.2903
▁đản	-14.2905
fall	-14.2909
▁prope	-14.2909
finish	-14.2914
post	-14.2928
she	-14.2934
iri	-14.2937
▁reserv	-14.2947
rough	-14.2951
▁Happ	-14.2958
▁facto	-14.2961
▁Phil	-14.2961
rag	-14.2973
week	-14.2981
eed	-14.2982
▁eradicat	-14.2984
xấu	-14.3009
▁Ij	-14.3025
,4	-14.303
▁calori	-14.3042
▁compensat	-14.3042
6,5	-14.3046
▁quo	-14.3059
mount	-14.3064
▁alon	-14.3067
▁tol	-14.307
▁superi	-14.3073
▁strangl	-14.3074
shes	-14.3081
▁giậ	-14.3087
91	-14.3089
interesting	-14.3093
product	-14.3097
hird	-14.3098
▁allie	-14.31
bring	-14.3102
lich	-14.3128
▁queu	-14.3134
ead	-14.3137
▁dặ	-14.3139
vy	-14.314
fit	-14.314
model	-14.3143
She	-14.3148
oclas	-14.3178
allo	-14.3181
words	-14.3182
thousand	-14.3183
▁gestur	-14.3198
York	-14.3205
par	-14.3217
icit	-14.3221
đề	-14.3223
ician	-14.323
▁comprehen	-14.3232
black	-14.3236
▁ze	-14.3248
▁Hu	-14.3249
laws	-14.325
▁intensi	-14.3256
▁wring	-14.3258
▁idio	-14.3259
▁decompos	-14.3267
▁pric	-14.327
▁concentrat	-14.3276
▁Kí	-14.3284
rạc	-14.3284
difference	-14.3285
empt	-14.3304
uter	-14.3306
last	-14.3322
▁sourc	-14.3326
▁gui	-14.3329
probabl	-14.3336
▁div	-14.3349
rofessor	-14.3365
leep	-14.3374
nnocent	-14.3375
▁impuls	-14.3375
▁Oxy	-14.338
▁bal	-14.3386
▁reflecti	-14.3402
nit	-14.3412
alve	-14.3415
paper	-14.3455
▁spect	-14.3456
▁addresse	-14.3458
your	-14.3461
▁constitution	-14.3469
pread	-14.3469
tched	-14.3473
▁Thiế	-14.3478
cryp	-14.3508
▁miến	-14.3534
▁memoriz	-14.3538
▁Industri	-14.3541
rustworth	-14.3547
▁crafts	-14.3548
▁farthe	-14.3553
▁capsiz	-14.3554
mình	-14.3556
opia	-14.3564
network	-14.3569
xe	-14.3573
hia	-14.3577
It	-14.3581
san	-14.3581
pal	-14.3583
egend	-14.3594
scription	-14.3595
population	-14.3597
ulation	-14.3611
liv	-14.3621
hanne	-14.3627
exist	-14.3628
focus	-14.3637
▁teller	-14.3641
listen	-14.3641
▁Cộ	-14.3647
orts	-14.3659
etti	-14.3667
erve	-14.3671
gue	-14.3676
kid	-14.3679
lyn	-14.368
▁devot	-14.3688
▁rắ	-14.3688
▁predica	-14.3708
Ý	-14.3717
rganization	-14.3719
uro	-14.372
▁prescribe	-14.3724
approach	-14.3744
rown	-14.3749
uột	-14.3751
▁steri	-14.3751
count	-14.3753
endenc	-14.3762
cũ	-14.3763
rai	-14.3763
▁Ac	-14.377
mm	-14.3789
word	-14.3789
dress	-14.3803
gles	-14.3805
▁stri	-14.3805
weet	-14.3808
material	-14.3821
plast	-14.3828
▁undermin	-14.3847
▁liber	-14.3853
igation	-14.3866
emy	-14.3869
▁Ama	-14.3875
▁convers	-14.3882
cái	-14.3882
neat	-14.3889
cit	-14.3896
▁abduct	-14.39
▁sala	-14.3916
represent	-14.3919
▁anticipat	-14.3924
▁vibrat	-14.3926
iculous	-14.3938
teroid	-14.3941
huy	-14.3944
phiế	-14.395
▁fil	-14.3952
compassi	-14.3953
▁peni	-14.3972
check	-14.3973
protect	-14.3975
park	-14.398
▁pictur	-14.3988
▁Slo	-14.399
deliver	-14.399
▁coff	-14.3997
▁wid	-14.3997
zero	-14.4005
▁voic	-14.4005
▁telescop	-14.4005
account	-14.4021
rso	-14.4021
Như	-14.4038
▁indicati	-14.4048
▁rum	-14.405
▁dr	-14.4055
▁7,	-14.4058
wada	-14.4066
▁equa	-14.4073
▁pic	-14.4075
pass	-14.4076
continuit	-14.4082
▁unrea	-14.4095
▁atroci	-14.4104
▁fak	-14.4107
genetic	-14.4118
▁Ngụ	-14.4124
agic	-14.4126
rling	-14.4142
▁Dy	-14.4148
inds	-14.4159
▁fina	-14.4172
monitor	-14.4175
cotti	-14.4181
▁bridg	-14.4184
▁king	-14.4186
▁communicat	-14.4203
appear	-14.4206
ala	-14.4212
regulat	-14.4214
ultimate	-14.4219
year	-14.4221
corrupt	-14.4221
▁gestat	-14.4224
script	-14.4243
nhà	-14.4247
engineer	-14.4247
vers	-14.4254
wheel	-14.4254
▁orchestra	-14.4259
▁repa	-14.4259
expert	-14.4263
surprising	-14.4265
ili	-14.4265
vulnerab	-14.4267
cement	-14.4268
động	-14.4273
ndon	-14.4279
▁leaf	-14.4282
spea	-14.4283
close	-14.4293
mind	-14.4303
▁centrifug	-14.431
ướ	-14.4313
particle	-14.4313
personal	-14.4322
animate	-14.4326
locate	-14.4328
limit	-14.4329
rection	-14.4331
1970	-14.4334
oke	-14.4339
familiar	-14.4345
dynamic	-14.4349
pt	-14.4352
▁Plu	-14.4364
▁chũ	-14.4369
spoke	-14.4371
ders	-14.4382
▁restricti	-14.4383
▁haz	-14.4389
▁chọ	-14.4393
View	-14.4394
▁exc	-14.4395
director	-14.4398
▁graf	-14.4401
foot	-14.4401
▁unde	-14.4406
▁formulati	-14.4408
▁Hew	-14.4409
ocy	-14.4409
tlemen	-14.4412
combine	-14.4412
molecule	-14.4412
sthan	-14.4414
roll	-14.4414
when	-14.4416
content	-14.442
▁bubbl	-14.4421
voya	-14.4422
dulter	-14.4422
▁moles	-14.4426
violent	-14.4428
surrect	-14.4429
emor	-14.4432
▁tab	-14.4435
▁tớ	-14.4436
▁brut	-14.4438
bike	-14.4442
oner	-14.4448
▁adventur	-14.445
belief	-14.4452
▁Tín	-14.446
string	-14.4464
▁hun	-14.4474
reaction	-14.4477
surve	-14.4481
▁prior	-14.4483
nzi	-14.4486
document	-14.4487
▁ir	-14.449
sk	-14.4491
itive	-14.4493
President	-14.4502
weapon	-14.4511
ste	-14.4512
explain	-14.4513
vicin	-14.4513
establish	-14.4514
metal	-14.4514
clinical	-14.4515
phrase	-14.4531
responsibilit	-14.4536
driver	-14.4545
nah	-14.4549
blind	-14.455
accurate	-14.4551
cco	-14.4552
creator	-14.4554
analytic	-14.4561
▁reinventi	-14.4561
conduct	-14.4563
hình	-14.4563
▁dies	-14.4563
phere	-14.457
argument	-14.4571
mor	-14.4575
distribute	-14.458
identify	-14.458
▁vani	-14.458
Global	-14.4581
▁shutt	-14.4588
ggest	-14.4595
▁advoca	-14.4601
crowd	-14.4608
fulfill	-14.461
▁Temp	-14.4611
Atlant	-14.4617
▁suffi	-14.4619
bị	-14.4623
▁Mand	-14.4624
conservative	-14.4625
agonist	-14.4629
criminalize	-14.4635
82	-14.4638
arne	-14.4639
condition	-14.4641
2015	-14.4642
Â	-14.4643
ophobi	-14.4644
stopp	-14.4645
satisfact	-14.4647
espondent	-14.465
Conne	-14.4653
condense	-14.4662
▁uns	-14.4665
▁Scal	-14.4665
ils	-14.4669
achievement	-14.4669
▁puls	-14.4672
gy	-14.4672
cloth	-14.4673
permanent	-14.4674
fielder	-14.4674
▁brib	-14.4677
humanize	-14.4679
bump	-14.468
Democrac	-14.4681
stack	-14.4681
renewable	-14.4682
▁Innovat	-14.4688
ague	-14.4689
descend	-14.4689
label	-14.4691
parameter	-14.4692
fortune	-14.4695
incentivize	-14.4695
Z	-14.4696
enthusiastic	-14.4697
We	-14.47
sponsor	-14.4702
competitive	-14.4703
amateur	-14.4703
energize	-14.4705
▁vibra	-14.4705
PT	-14.4706
▁envelop	-14.471
SIM	-14.4713
avoid	-14.4717
invigorate	-14.4717
▁metropol	-14.472
discriminat	-14.4723
mimic	-14.4724
fresh	-14.4724
flood	-14.4725
vati	-14.4728
weigh	-14.473
▁homicid	-14.473
associate	-14.473
excavate	-14.4734
itar	-14.4734
bile	-14.4736
đê	-14.4742
microscop	-14.4743
CE	-14.4744
clud	-14.4744
grocer	-14.4745
optimize	-14.4749
modifie	-14.4751
utopia	-14.4755
▁horrif	-14.4756
page	-14.4756
club	-14.4759
orne	-14.476
▁uninte	-14.4763
racial	-14.4765
▁wage	-14.4768
output	-14.4769
imagine	-14.4775
▁Spu	-14.4783
▁conj	-14.4783
author	-14.4784
compress	-14.4785
▁disco	-14.4788
promise	-14.4788
Pro	-14.479
ulsive	-14.4793
partition	-14.4797
pulsive	-14.4799
nake	-14.4801
mas	-14.4805
laureate	-14.4813
revolutionar	-14.4817
▁Mou	-14.4819
▁Tiề	-14.4826
▁bounc	-14.4827
constitutional	-14.4829
▁nhữn	-14.4831
regular	-14.4836
interrupt	-14.4839
▁innoc	-14.4839
ryonic	-14.4839
kem	-14.4843
ari	-14.4854
pport	-14.4856
announce	-14.4858
willing	-14.4859
applica	-14.4867
release	-14.4868
diagnose	-14.4868
write	-14.4869
▁Đư	-14.4869
▁mocke	-14.4873
eno	-14.4875
shoot	-14.4876
▁enterpris	-14.4877
▁ende	-14.488
▁activ	-14.488
categoriz	-14.489
confiden	-14.489
▁enthusias	-14.4894
cline	-14.4898
constrain	-14.4899
▁claus	-14.4902
▁Grou	-14.4906
▁sights	-14.4908
▁colo	-14.491
▁conferenc	-14.4919
quote	-14.4921
favor	-14.4921
▁brai	-14.4922
duce	-14.4935
coloni	-14.4947
inhabit	-14.4949
▁slop	-14.4952
mortal	-14.4955
polit	-14.496
igator	-14.4961
ssociate	-14.4963
cide	-14.4964
▁beautifi	-14.4966
▁positiv	-14.4968
▁synchroni	-14.4973
lead	-14.498
riminolog	-14.4982
ustom	-14.4989
embodie	-14.4992
legitimate	-14.4995
confirm	-14.4997
iting	-14.5002
poo	-14.5004
occurr	-14.5017
▁collaborat	-14.5018
atar	-14.502
shirt	-14.5021
▁affl	-14.5022
concentrati	-14.5024
▁activi	-14.5024
muốn	-14.5032
factor	-14.5034
giới	-14.5036
rbaniz	-14.5041
nhất	-14.5049
smart	-14.505
▁phras	-14.5053
Jan	-14.5056
guard	-14.5056
cate	-14.5057
▁Impos	-14.5059
App	-14.5059
opening	-14.506
số	-14.506
▁tank	-14.506
hem	-14.5061
▁nanotech	-14.5065
sage	-14.5067
anc	-14.5069
▁dishe	-14.507
▁schem	-14.5077
▁flicke	-14.5082
▁kilomet	-14.5084
align	-14.509
nhận	-14.5093
▁rustl	-14.5094
copy	-14.5099
them	-14.5099
assemble	-14.5102
▁Adv	-14.5103
▁symbolic	-14.5103
▁legitim	-14.5104
▁sunli	-14.5107
crack	-14.5111
trop	-14.5116
▁fertili	-14.5116
▁apolog	-14.5116
▁passiv	-14.5116
▁amplif	-14.5118
▁Pen	-14.5118
▁superstitio	-14.5131
▁Scribb	-14.5133
existent	-14.5135
version	-14.5141
stop	-14.5142
▁unpop	-14.5143
uj	-14.5143
disclose	-14.5143
Ja	-14.5143
▁futur	-14.5144
▁climat	-14.5146
cientific	-14.5146
▁administ	-14.5153
▁whistleblow	-14.5156
▁recap	-14.5157
Trai	-14.5158
rigid	-14.5159
eenager	-14.5159
ctor	-14.5161
▁Pakista	-14.5161
▁infrastructur	-14.5166
domiz	-14.5168
sworth	-14.517
▁Prob	-14.517
▁loga	-14.5175
ransparen	-14.5182
litter	-14.5187
rchitect	-14.5188
uthorit	-14.5189
Crisis	-14.519
raffic	-14.519
▁Syri	-14.5191
▁rende	-14.5192
ẵ	-14.5193
cknowledg	-14.5194
▁Build	-14.5197
ching	-14.5197
omputer	-14.5199
eradica	-14.52
uppl	-14.5205
▁Religio	-14.5206
▁catalog	-14.521
spring	-14.5213
ontinent	-14.5214
dministrati	-14.5214
urrent	-14.5214
phoric	-14.5217
▁Decla	-14.5217
ymptom	-14.5221
yế	-14.5222
onsultati	-14.5222
ircle	-14.5223
cholarship	-14.5224
hallenge	-14.5224
▁Engine	-14.5224
imultaneous	-14.5225
elebrit	-14.5227
onfiguration	-14.5227
yborg	-14.5228
athedral	-14.5228
▁flam	-14.5229
▁Glen	-14.5229
▁Nine	-14.523
tandardiz	-14.523
▁accord	-14.5231
grapher	-14.5232
▁Olympi	-14.5232
rystal	-14.5232
▁incomplet	-14.5233
irector	-14.5234
ribbl	-14.5234
oncentration	-14.5235
▁terri	-14.5235
nthropolog	-14.5235
tereotyp	-14.5236
nteract	-14.5236
ifferent	-14.5238
struct	-14.5238
ultiply	-14.5239
▁narrat	-14.5239
eautiful	-14.524
pecific	-14.524
ltimate	-14.524
nounce	-14.5241
▁hallucinat	-14.5241
orpholog	-14.5242
arrang	-14.5242
▁biotech	-14.5242
▁nomin	-14.5243
ulnerabilit	-14.5243
etrayal	-14.5244
itizen	-14.5244
▁stereo	-14.5245
▁Victor	-14.5246
moon	-14.5247
▁academi	-14.5248
tractive	-14.525
andwich	-14.525
ncident	-14.5251
nuckle	-14.5251
▁peripher	-14.5252
aterproof	-14.5253
indergart	-14.5253
ybrid	-14.5253
▁perpetrat	-14.5254
esponsibl	-14.5255
▁prote	-14.5255
mplicit	-14.5255
eficit	-14.5255
▁skelet	-14.5256
engeance	-14.5256
▁carniv	-14.5257
tribute	-14.5257
flexi	-14.5258
nspector	-14.5259
nishment	-14.526
▁propaga	-14.526
▁televis	-14.526
rthodox	-14.5261
surfac	-14.5261
▁advocat	-14.5261
heelchair	-14.5261
▁accompli	-14.5262
▁Fleis	-14.5262
nvironment	-14.5263
▁espres	-14.5263
nbelievabl	-14.5263
▁NNGD	-14.5263
▁instruct	-14.5263
lympic	-14.5263
▁precipit	-14.5264
nterprise	-14.5264
[...]
